
#define NNoutput &buffer0[0];

/* sram:9984, flash:11104 */
#define PEAK_MEM 9984
#define MODEL_SIZE 11104

static signed char buffer[9984];
static signed char *buffer0 = &buffer[0];
static int16_t *sbuf = (int16_t *)&buffer[9408];
const int SBuffer_size = 576;

const unsigned char weight0[144] = {0x81, 0x8e, 0x94, 0xe6, 0xe3, 0xe1, 0xc7, 0xef, 0xf6, 0x7b, 0x4e, 0xdf, 0x7f, 0x42, 0xea, 0x34, 0x2a, 0x09, 0x81, 0xed, 0xfe, 0xf7, 0xde, 0xe4, 0x11, 0x01, 0xbc, 0xff, 0x4a, 0x59, 0x84, 0xe9, 0x7f, 0xcd, 0x8a, 0xe2, 0xff, 0x44, 0x08, 0x57, 0x7f, 0x33, 0x49, 0x43, 0x2b, 0x57, 0x2a, 0xb0, 0x57, 0xf5, 0x83, 0xff, 0xa0, 0x81, 0x28, 0xd0, 0xd9, 0x68, 0xe7, 0x81, 0x62, 0x1d, 0x90, 0x54, 0x66, 0xb4, 0x6c, 0xef, 0x81, 0x27, 0x97, 0x02, 0x57, 0xff, 0xed, 0x7f, 0x3c, 0xee, 0x4e, 0x63, 0x8b, 0x34, 0x7f, 0x6c, 0x54, 0x6a, 0x4c, 0x64, 0x07, 0x2b, 0x2a, 0x52, 0x60, 0x14, 0x3c, 0x7f, 0x04, 0xf6, 0x2b, 0x5b, 0x57, 0x16, 0x67, 0xe8, 0xb9, 0xe8, 0x81, 0xd6, 0x7f, 0x5b, 0x53, 0x0a, 0xe8, 0x07, 0x92, 0x96, 0xa4, 0x2a, 0xf3, 0xb2, 0xee, 0x92, 0xf8, 0x81, 0xf3, 0x3b, 0x4a, 0x45, 0x18, 0x5d, 0x7f, 0x3b, 0x2d, 0x4d, 0x29, 0x0e, 0xaa, 0x81, 0xb6, 0x8f, 0xad, 0x8a, 0xb2, 0xfc, };
const int32_t bias0[16] = {66465, 250517, -27566, 382, 66923, 765, 335, 12601, 35993, 78277, 75726, 1831, 14264, -6970, 82599, -20096, };
const int32_t shift0[16] = {-11, -11, -9, -8, -10, -9, -8, -9, -9, -10, -10, -8, -9, -9, -10, -10, };
const int32_t multiplier0[16] = {1625567104, 1119389762, 2101360053, 1334207467, 1516633261, 1447273842, 1360463352, 1793071200, 1488840249, 1358793471, 1412279868, 1868420993, 1502609620, 1411960402, 1296908148, 1283982040, };
const unsigned char CHWweight1[144] = {0x7f, 0x4f, 0x7f, 0xf7, 0xb2, 0xdf, 0x0b, 0xef, 0xfe, 0x46, 0x26, 0x2e, 0x21, 0x32, 0x36, 0x81, 0x89, 0xce, 0x81, 0xe2, 0x04, 0xf7, 0x15, 0x1d, 0x0c, 0x1b, 0x19, 0x3f, 0x70, 0x7f, 0xfb, 0x45, 0x59, 0x09, 0x98, 0xe2, 0xfb, 0xc9, 0x3b, 0xec, 0x86, 0x7f, 0xd9, 0x02, 0x4a, 0x15, 0x30, 0x23, 0x36, 0x4d, 0x2a, 0xfa, 0xda, 0x81, 0x02, 0xf9, 0x02, 0x10, 0x04, 0x09, 0x52, 0x3d, 0x81, 0x6a, 0x24, 0x1c, 0x34, 0x81, 0x2c, 0x0c, 0x2e, 0x02, 0xb4, 0x1a, 0x0c, 0x81, 0x12, 0x31, 0xbe, 0x9b, 0xbc, 0x6a, 0x4d, 0x32, 0x66, 0x4d, 0x81, 0xe7, 0xc0, 0xed, 0x1b, 0xd3, 0x85, 0x45, 0x25, 0x81, 0x00, 0x35, 0xb9, 0x5b, 0x05, 0xc1, 0x7f, 0x35, 0x9f, 0x7e, 0x16, 0xcd, 0xd6, 0xb1, 0xdf, 0xa5, 0xaa, 0xb6, 0x81, 0xcf, 0xbf, 0xe4, 0xed, 0x2a, 0xd7, 0x46, 0x38, 0x7f, 0x54, 0xea, 0x17, 0x1e, 0x27, 0x93, 0x81, 0x98, 0x74, 0x44, 0x57, 0xbe, 0xf4, 0x62, 0xd6, 0x8e, 0x0d, 0x50, 0xf7, 0x81, };
const int32_t offsetBias1[16] = {17601, 734, -5675, 37637, 3377, 9486, 4306, 22788, -38886, 20713, -17775, 77456, -61522, 29463, 3077, -21581, };
const int32_t offsetRBias1[16] = {0, 0, 0, 0, 0, 0, 0, 0, 0, 0, 0, 0, 0, 0, 0, 0, };
const int32_t shift1[16] = {-6, -6, -5, -8, -7, -7, -7, -8, -7, -8, -7, -9, -8, -6, -7, -6, };
const int32_t multiplier1[16] = {1878763988, 1682585571, 1997206740, 1311494359, 1727777485, 1796184381, 1260489862, 2127003186, 1921057048, 1614606580, 2134663052, 1534788101, 1623505971, 1107093687, 1894334866, 1304558765, };
const unsigned char weight2[4608] = {0x04, 0x36, 0xb5, 0x28, 0x0d, 0xca, 0x3a, 0xd1, 0x9b, 0xc6, 0x26, 0x26, 0x1f, 0xe8, 0xf1, 0x03, 0xad, 0xd0, 0xf7, 0xe2, 0x13, 0x00, 0xf3, 0x15, 0xf7, 0x0a, 0x23, 0xe6, 0xf9, 0x39, 0xfe, 0xeb, 0x10, 0x9c, 0x05, 0xcd, 0x14, 0x36, 0x06, 0x39, 0x2f, 0x29, 0xf6, 0xe1, 0x0c, 0xd9, 0xe6, 0x15, 0x15, 0x38, 0x11, 0xff, 0xbf, 0xe9, 0xfc, 0xf0, 0x84, 0x0e, 0xd8, 0x0f, 0xeb, 0xe5, 0xdb, 0x0f, 0xc1, 0x81, 0xe0, 0x21, 0x22, 0xf4, 0xfa, 0x1a, 0x0a, 0xd3, 0xca, 0xd6, 0xee, 0x54, 0x16, 0xe2, 0x40, 0x19, 0xff, 0x21, 0x04, 0x0e, 0x16, 0x11, 0x13, 0xd5, 0x08, 0x01, 0x22, 0x06, 0xd5, 0xfd, 0x0b, 0xb6, 0x4e, 0xf7, 0x0c, 0x2c, 0xf0, 0x12, 0x37, 0x20, 0xfd, 0x05, 0x14, 0xc5, 0xe4, 0x18, 0x1b, 0xfe, 0xa6, 0xd3, 0xe8, 0xf7, 0xfb, 0x08, 0x16, 0x0e, 0x0b, 0x0f, 0x07, 0x0e, 0x1c, 0x05, 0x32, 0xdc, 0x43, 0x16, 0x1b, 0xfd, 0xf7, 0x28, 0xbb, 0x38, 0x29, 0xf9, 0x0c, 0x04, 0xf0, 0x22, 0xd7, 0x51, 0x3d, 0x48, 0xe9, 0xfc, 0xfc, 0x55, 0xe3, 0x85, 0xda, 0x7f, 0xe7, 0xd1, 0x36, 0x5b, 0xc7, 0xf3, 0x15, 0x21, 0xdc, 0xfd, 0xcb, 0x7c, 0x14, 0xfb, 0xba, 0xf3, 0xd9, 0x1c, 0xd3, 0x15, 0xce, 0xe6, 0xf4, 0xc8, 0x0b, 0xf8, 0x0d, 0x4d, 0x1c, 0xca, 0xf0, 0x2b, 0xfb, 0xf1, 0x34, 0xc6, 0xd9, 0xdc, 0xf7, 0xe8, 0xcc, 0x03, 0x0e, 0xe0, 0x01, 0x1d, 0x2a, 0xdc, 0x12, 0xd0, 0x2e, 0xfe, 0xf5, 0xd9, 0x06, 0x06, 0x1e, 0xf3, 0xe7, 0x07, 0x31, 0xdc, 0xf3, 0xea, 0xfb, 0x26, 0x04, 0x10, 0xcb, 0x06, 0x29, 0xe7, 0x07, 0x14, 0xec, 0x08, 0x12, 0x0b, 0x0f, 0xe6, 0x1c, 0xf2, 0x12, 0x2e, 0xec, 0x1f, 0xdf, 0x2f, 0xf6, 0xe5, 0xe9, 0x0d, 0xe6, 0xf3, 0xf6, 0x05, 0xfd, 0xe9, 0x26, 0x5a, 0x00, 0x07, 0xe8, 0x02, 0x09, 0x04, 0xe8, 0xfe, 0xd5, 0xf1, 0xd9, 0x07, 0x0b, 0x24, 0x14, 0xfc, 0x0a, 0x01, 0x39, 0xc5, 0x0d, 0x08, 0xdb, 0x0a, 0xa8, 0x53, 0xf9, 0x12, 0xd8, 0x31, 0x02, 0xbc, 0xeb, 0x19, 0xc5, 0xe3, 0x2d, 0x06, 0x2c, 0x02, 0x40, 0xda, 0x20, 0x0b, 0x13, 0xea, 0xeb, 0x17, 0xce, 0x33, 0x11, 0x3d, 0x2d, 0xdf, 0x96, 0x35, 0xe3, 0x15, 0x11, 0x04, 0x1b, 0xfb, 0xd5, 0x0c, 0x21, 0x16, 0x51, 0xe6, 0xec, 0x30, 0xb4, 0x0e, 0xfb, 0xf8, 0xe8, 0xfc, 0xb7, 0x01, 0x31, 0x11, 0xd5, 0xf6, 0xf8, 0xd6, 0xb7, 0x84, 0x5b, 0xe4, 0x22, 0xef, 0x0b, 0xb0, 0xd8, 0x2e, 0x64, 0x43, 0xbd, 0xf9, 0xff, 0xe1, 0xef, 0x12, 0xd6, 0xd2, 0xfa, 0x2c, 0xb9, 0x9a, 0x8b, 0x1c, 0x0c, 0xd8, 0x06, 0xf8, 0xc4, 0xe2, 0x07, 0x01, 0xa3, 0xed, 0x23, 0xfb, 0xff, 0x16, 0xb6, 0xd2, 0xfd, 0x06, 0xf0, 0x35, 0x2f, 0x66, 0xed, 0xbe, 0xed, 0xbb, 0x3e, 0x07, 0xe1, 0x18, 0x03, 0xf2, 0x49, 0xe0, 0x56, 0x81, 0xde, 0xf7, 0xe8, 0xc4, 0x04, 0xc4, 0xaf, 0xe9, 0xdb, 0x3e, 0x17, 0x3d, 0x01, 0x36, 0x04, 0xe9, 0xf6, 0xdf, 0x0a, 0x3e, 0x14, 0x06, 0xe1, 0x15, 0xe9, 0xf5, 0x07, 0x51, 0x05, 0xd9, 0xfe, 0x1f, 0xfe, 0x0e, 0x01, 0xe9, 0xe6, 0xeb, 0xef, 0xfc, 0xff, 0x1a, 0xea, 0x02, 0x15, 0x0d, 0xf9, 0xf0, 0x00, 0xf6, 0x0e, 0x18, 0x14, 0xf8, 0xfc, 0x0e, 0xf9, 0xfa, 0x07, 0xfd, 0xef, 0x02, 0x16, 0x08, 0x17, 0x09, 0x00, 0xf6, 0x07, 0xff, 0xff, 0x07, 0xee, 0x14, 0xf0, 0xfc, 0xfe, 0x01, 0x04, 0xf5, 0xff, 0xfc, 0x07, 0x10, 0x1a, 0xfd, 0xf4, 0xed, 0x0e, 0x01, 0x09, 0xf6, 0xff, 0x00, 0x0e, 0xef, 0xfb, 0x00, 0xf4, 0xf7, 0xf6, 0xfb, 0x0e, 0x00, 0x09, 0xf8, 0x0d, 0x03, 0xe9, 0x07, 0xfc, 0x05, 0xfa, 0x08, 0xe6, 0x03, 0x02, 0x01, 0xf4, 0xfc, 0xfd, 0x02, 0x0c, 0xf2, 0xf9, 0x01, 0x14, 0xf9, 0x06, 0x09, 0x03, 0x1b, 0xf3, 0xfe, 0x17, 0x02, 0xf7, 0xdf, 0xf3, 0xef, 0xed, 0x09, 0x81, 0x10, 0x05, 0xf9, 0x05, 0xfd, 0xff, 0x07, 0x04, 0x01, 0xfe, 0x09, 0x10, 0x15, 0x09, 0xed, 0xfc, 0xf9, 0xfa, 0x00, 0x1a, 0xff, 0xfe, 0x02, 0x0b, 0xf6, 0x11, 0xf6, 0xf6, 0x11, 0xe9, 0xe7, 0xb5, 0x12, 0xb1, 0xf9, 0xd4, 0x5c, 0x5b, 0xdf, 0xf7, 0xd3, 0x2d, 0xc2, 0x1d, 0xbd, 0xe7, 0x24, 0xe8, 0xee, 0xf8, 0x10, 0x0a, 0xde, 0x08, 0x00, 0xd2, 0xf0, 0x21, 0xbc, 0xf4, 0xaf, 0x05, 0x46, 0xf9, 0xf2, 0xf7, 0xae, 0x1c, 0xa7, 0xe9, 0xf4, 0x81, 0xf0, 0x34, 0x13, 0x18, 0xec, 0xc8, 0xd0, 0xe9, 0x38, 0x1c, 0x08, 0x09, 0x37, 0xa6, 0xcf, 0xd5, 0xb7, 0xd3, 0x2f, 0xc2, 0x26, 0x4e, 0x4d, 0x03, 0xea, 0x4d, 0xd5, 0xa6, 0xca, 0x25, 0xf5, 0xbd, 0xee, 0xdd, 0xe7, 0xeb, 0xb9, 0xee, 0xf8, 0x20, 0x09, 0x23, 0x3e, 0xda, 0xf2, 0x2a, 0x2b, 0xf0, 0x2f, 0xf9, 0x1c, 0xea, 0x0a, 0xa2, 0xd1, 0x15, 0x03, 0xd3, 0x10, 0x13, 0xef, 0xe8, 0xfc, 0xe2, 0x25, 0xbb, 0x2f, 0x16, 0x45, 0x09, 0x03, 0xc1, 0xe9, 0x08, 0xb5, 0x06, 0x48, 0xfd, 0xfb, 0xd4, 0x16, 0xd6, 0x20, 0x1b, 0x18, 0x00, 0x05, 0xf8, 0x2a, 0x39, 0xe3, 0x0a, 0x85, 0x0c, 0x03, 0x0c, 0xbb, 0x4f, 0xff, 0xd0, 0x0f, 0xf6, 0xfc, 0x03, 0x0f, 0xea, 0xc7, 0xca, 0x09, 0xe9, 0xf5, 0xe5, 0xea, 0xf9, 0xf9, 0xef, 0x02, 0x20, 0xf2, 0x2b, 0xfe, 0x09, 0xcb, 0xbc, 0x16, 0xf9, 0xe4, 0xfa, 0xd1, 0xfd, 0x05, 0xe3, 0x11, 0xfe, 0xfc, 0x04, 0x16, 0xf8, 0x39, 0x81, 0xce, 0x05, 0xe7, 0x16, 0xcc, 0x51, 0xfe, 0x12, 0x0a, 0xf8, 0xc9, 0x04, 0x05, 0xfe, 0x2f, 0x19, 0xfd, 0x09, 0x07, 0x07, 0x25, 0xe9, 0x16, 0xfe, 0xfb, 0xff, 0x1a, 0x15, 0xf2, 0x0e, 0x0b, 0x41, 0xd7, 0x06, 0x08, 0xf4, 0x04, 0x0b, 0x05, 0x02, 0xec, 0x0f, 0x15, 0xf0, 0x0f, 0x0c, 0x08, 0x1f, 0xf9, 0x01, 0x1b, 0xd0, 0xf1, 0x24, 0x05, 0xfe, 0xe0, 0xf4, 0xfa, 0x08, 0xe0, 0xfe, 0xd8, 0xfb, 0xf7, 0xf5, 0x0c, 0xe8, 0x0d, 0xf2, 0x08, 0xfb, 0xfb, 0x02, 0x16, 0x09, 0x10, 0x03, 0x12, 0xcb, 0xf7, 0xf3, 0x13, 0xfc, 0x14, 0xf2, 0xf5, 0x07, 0x0b, 0x1f, 0xf9, 0xf9, 0x1b, 0xf7, 0xcd, 0x9f, 0x37, 0xf6, 0xf1, 0x13, 0xf1, 0xe4, 0xff, 0xdc, 0x33, 0xdd, 0xb3, 0xc3, 0xc0, 0x21, 0x0e, 0xee, 0x2d, 0x6f, 0x41, 0x2a, 0x4b, 0xdc, 0xbe, 0x5a, 0x02, 0xe5, 0xe0, 0x14, 0xc2, 0x2c, 0xe8, 0xdd, 0x0b, 0xc7, 0x35, 0xcc, 0x14, 0x99, 0xdb, 0xd6, 0xdc, 0xd7, 0x05, 0x03, 0xd8, 0x5f, 0xeb, 0xe4, 0xe1, 0xff, 0xe4, 0xbd, 0xe7, 0x81, 0x09, 0xd0, 0xf8, 0x62, 0x3d, 0xf9, 0x4b, 0x19, 0x6e, 0x07, 0xec, 0x32, 0xf2, 0xe5, 0x08, 0x23, 0x17, 0x0d, 0xe4, 0xd7, 0x1d, 0x28, 0xd8, 0xdb, 0x09, 0xc1, 0x23, 0x0d, 0x11, 0xdb, 0x16, 0x24, 0x08, 0x25, 0xf5, 0x11, 0xe3, 0xd1, 0xa5, 0xee, 0x0f, 0x03, 0xe8, 0x09, 0x1e, 0xcf, 0x4a, 0xf4, 0xe7, 0xdf, 0x10, 0x3e, 0xf2, 0xb5, 0x65, 0xdd, 0x33, 0x0c, 0x07, 0x28, 0xdb, 0x4c, 0xab, 0x4d, 0x8d, 0xfc, 0xfd, 0x07, 0xf4, 0x11, 0x2f, 0xe7, 0x0e, 0x0a, 0x28, 0x14, 0xd8, 0x27, 0xd8, 0x24, 0x05, 0xf5, 0x17, 0x18, 0xd6, 0xe0, 0x2d, 0x38, 0xd8, 0x05, 0xfa, 0x08, 0xe9, 0x3f, 0xfb, 0xee, 0xb6, 0xc8, 0x05, 0xfd, 0xf4, 0x10, 0x1b, 0x2c, 0x1e, 0x06, 0xc7, 0xda, 0x11, 0xf1, 0xed, 0xd0, 0xd1, 0xce, 0xe8, 0x1f, 0x30, 0xe7, 0x20, 0xd4, 0xf7, 0x01, 0x1d, 0x07, 0xf8, 0xea, 0xe4, 0x1c, 0xfb, 0x05, 0xe0, 0x1d, 0xed, 0x2e, 0x28, 0xf4, 0x48, 0xf5, 0xe1, 0x18, 0xf5, 0x1c, 0x02, 0xf9, 0xe4, 0x01, 0xd9, 0xd8, 0x30, 0xde, 0x18, 0x38, 0xf1, 0xf1, 0x11, 0xa7, 0x05, 0x18, 0xf0, 0x1d, 0xf5, 0xcc, 0x46, 0x1f, 0xf3, 0x09, 0xf3, 0x0f, 0xc2, 0xf6, 0xff, 0xf2, 0x2a, 0xf6, 0x12, 0x12, 0xf9, 0xec, 0x03, 0x13, 0xd6, 0x31, 0x20, 0x23, 0x25, 0xd6, 0xca, 0x25, 0xf2, 0x17, 0x1d, 0xf6, 0xe5, 0xe4, 0xe4, 0x94, 0x46, 0x0c, 0xe0, 0xe6, 0xf6, 0x13, 0xb4, 0x10, 0x2e, 0xd5, 0xd1, 0xda, 0x4e, 0x08, 0x7a, 0x1c, 0xfc, 0x26, 0xb9, 0x11, 0xc0, 0x2f, 0xc1, 0x27, 0x45, 0xb0, 0x1d, 0x0d, 0x2f, 0xf2, 0x3c, 0xee, 0xfb, 0xc8, 0xe2, 0x02, 0x19, 0x7f, 0xe1, 0x01, 0x37, 0x9f, 0x44, 0xfe, 0x25, 0x39, 0xe0, 0xa8, 0x6d, 0xf7, 0xdf, 0xd7, 0x00, 0x11, 0x18, 0x16, 0x00, 0x1d, 0x09, 0x08, 0x13, 0x14, 0xf9, 0xf7, 0xf4, 0xfb, 0x05, 0x02, 0xf3, 0x0a, 0x03, 0xea, 0xff, 0xf0, 0x00, 0xfa, 0x00, 0x09, 0x04, 0x00, 0xf8, 0xf2, 0xfa, 0xee, 0x02, 0x00, 0xfd, 0x02, 0x14, 0x0f, 0xf1, 0xf8, 0x27, 0x10, 0x10, 0x05, 0xe3, 0xf6, 0x0e, 0xf9, 0x19, 0x09, 0xff, 0x02, 0xf0, 0x31, 0x06, 0x04, 0xd5, 0x0b, 0x09, 0x12, 0xf8, 0x03, 0xe5, 0x0f, 0x04, 0x0f, 0x0f, 0xf4, 0x08, 0xe8, 0xfa, 0xea, 0xe1, 0x0f, 0x02, 0xf9, 0x0c, 0x01, 0x0f, 0x03, 0x04, 0xfa, 0x02, 0xfd, 0xf4, 0x15, 0x03, 0x09, 0xe5, 0xf0, 0xf5, 0x02, 0xfe, 0xee, 0x55, 0xfd, 0x09, 0xea, 0x15, 0x81, 0xef, 0x3a, 0xf7, 0x1f, 0xd7, 0x9e, 0x0a, 0x1b, 0xea, 0x09, 0xfa, 0xec, 0xf0, 0xf2, 0x10, 0xcd, 0x0a, 0xd9, 0xfd, 0xfc, 0x1a, 0x10, 0x24, 0x1b, 0xe7, 0x02, 0x0e, 0xdd, 0xf9, 0x02, 0xeb, 0xe8, 0x04, 0x0f, 0xf0, 0x01, 0x10, 0xd6, 0x17, 0x00, 0xdd, 0xef, 0x0e, 0xf2, 0xc5, 0x33, 0xe4, 0x04, 0x09, 0x29, 0xea, 0xfe, 0x06, 0xdc, 0x3b, 0xc9, 0xc1, 0x1c, 0xbc, 0xff, 0xee, 0x18, 0x07, 0x27, 0x00, 0x0e, 0x18, 0x13, 0x4e, 0xeb, 0x18, 0x0e, 0xf1, 0xf5, 0x1f, 0xfe, 0x06, 0x28, 0xff, 0x0c, 0x08, 0x28, 0x28, 0xf5, 0x14, 0xf1, 0x0e, 0x21, 0xb8, 0x44, 0xf1, 0x03, 0x03, 0x2d, 0x12, 0x1e, 0x06, 0xe8, 0xd7, 0xcb, 0xfa, 0x42, 0x4a, 0x83, 0xd8, 0xf9, 0x0c, 0xee, 0xf8, 0x19, 0xfb, 0x47, 0xeb, 0xe0, 0x37, 0xe9, 0x4b, 0x18, 0xf0, 0x0f, 0xe3, 0xe1, 0xc3, 0xf4, 0x06, 0x32, 0xfd, 0x1b, 0xf7, 0x02, 0x1b, 0xdb, 0x05, 0xd6, 0xf9, 0x1f, 0xf4, 0x24, 0x1d, 0x23, 0xb4, 0x3d, 0xa1, 0xf3, 0xf7, 0x48, 0xc2, 0x0b, 0xe2, 0xbf, 0x5c, 0x94, 0xf1, 0x02, 0x11, 0x0e, 0x0b, 0x0f, 0x29, 0x53, 0xc9, 0x0d, 0x35, 0x0a, 0xd5, 0xed, 0x33, 0x28, 0xf0, 0x81, 0x0f, 0x04, 0xf4, 0xbc, 0xa2, 0x10, 0x07, 0x65, 0x3e, 0xfc, 0xc5, 0xf5, 0x0f, 0x1c, 0xbe, 0x32, 0xe6, 0x81, 0x09, 0xe3, 0x1e, 0xf3, 0x81, 0xf4, 0xeb, 0xf1, 0xd5, 0xfc, 0xf5, 0x00, 0xc6, 0xe7, 0xba, 0x1e, 0x19, 0xee, 0x03, 0x0c, 0xc6, 0x1d, 0xbd, 0x11, 0x02, 0xf0, 0xf8, 0xfb, 0x11, 0x25, 0x2c, 0xad, 0xf2, 0xf1, 0xf4, 0xf0, 0xeb, 0x06, 0xc5, 0x22, 0xe2, 0x10, 0x03, 0x17, 0x06, 0xea, 0x19, 0x31, 0xf8, 0x00, 0x12, 0x00, 0x36, 0x08, 0x30, 0xf3, 0x22, 0x13, 0xfb, 0xfc, 0xfc, 0xe4, 0xe3, 0xf5, 0x0f, 0xfd, 0x04, 0x04, 0xfe, 0xf2, 0xe1, 0xf6, 0x19, 0xf6, 0xf0, 0x11, 0x21, 0x23, 0x1d, 0x2e, 0x04, 0x0c, 0x04, 0xfc, 0xfd, 0xf3, 0x0b, 0xf8, 0x0a, 0xfc, 0x0d, 0x0a, 0x07, 0xf1, 0x07, 0x01, 0x04, 0x12, 0xf3, 0x08, 0x0b, 0x0a, 0xfa, 0xea, 0xed, 0xf7, 0x0a, 0xef, 0xe7, 0xd5, 0xf0, 0x0c, 0x04, 0x05, 0xf5, 0x08, 0x05, 0x1a, 0x03, 0x10, 0xf2, 0xfd, 0xf3, 0x02, 0x0f, 0x1b, 0x0c, 0x05, 0x09, 0xfd, 0x1a, 0x0a, 0x02, 0xff, 0x07, 0xfc, 0x00, 0x05, 0xef, 0x1b, 0x1f, 0x21, 0x10, 0x12, 0xf9, 0xc8, 0x1b, 0x47, 0xe9, 0xf8, 0xf2, 0x09, 0x70, 0x63, 0xff, 0x1c, 0x60, 0xd6, 0xb9, 0xf3, 0x30, 0x4f, 0xfd, 0xfc, 0x15, 0x09, 0xe5, 0xb9, 0x29, 0x26, 0xfb, 0x20, 0x14, 0xf7, 0xbd, 0x34, 0xbf, 0x27, 0x09, 0xe5, 0x06, 0x31, 0x48, 0x57, 0x6e, 0x07, 0x2a, 0xea, 0xde, 0x03, 0x2e, 0xf8, 0x0c, 0xd2, 0x02, 0x15, 0xd9, 0xb3, 0x23, 0xdc, 0xed, 0x07, 0xd5, 0x15, 0x59, 0x1a, 0xed, 0x0f, 0x3c, 0xeb, 0x0e, 0xf4, 0xeb, 0x0c, 0xfd, 0xc5, 0xe5, 0xf0, 0xdb, 0x05, 0x0c, 0x04, 0xf9, 0xff, 0xc9, 0x0e, 0x1c, 0xf0, 0xf5, 0xf4, 0x15, 0xcf, 0xd2, 0xd5, 0xff, 0xf5, 0xdb, 0xc5, 0x44, 0xcd, 0x4a, 0xcf, 0x16, 0x2a, 0xb4, 0xb0, 0xd8, 0xd2, 0x5a, 0xb9, 0xd1, 0x2e, 0x18, 0x3d, 0xc9, 0xcd, 0x1c, 0xf3, 0xf9, 0xd6, 0xc7, 0x3a, 0xd2, 0xf2, 0x07, 0x15, 0xe4, 0x18, 0x05, 0x0a, 0xb6, 0x20, 0x8e, 0x4e, 0xd3, 0xfc, 0x2b, 0xcb, 0x2e, 0x57, 0x21, 0x43, 0x7f, 0xdb, 0xc3, 0xd2, 0x7f, 0xbb, 0xf9, 0xe1, 0xeb, 0xcc, 0xc5, 0xdf, 0xf0, 0x0c, 0xda, 0x1d, 0xf8, 0x2a, 0xff, 0xe7, 0xfb, 0xc9, 0xfc, 0xc9, 0xce, 0x15, 0xd8, 0x07, 0xe0, 0x0c, 0xe0, 0x3d, 0xd2, 0xf5, 0x0d, 0xeb, 0xbe, 0xfa, 0xf0, 0xee, 0xf2, 0x0a, 0xf8, 0x0d, 0xd9, 0xfd, 0xe8, 0x01, 0x04, 0x09, 0x1a, 0x21, 0x1a, 0x1d, 0x0e, 0x19, 0x0c, 0xd8, 0xcc, 0xdc, 0x15, 0x16, 0x66, 0xab, 0x2b, 0x28, 0xf3, 0xfd, 0x2e, 0xfe, 0x09, 0x08, 0xd3, 0x11, 0xc6, 0x0f, 0x01, 0x17, 0x1a, 0xef, 0xee, 0x04, 0x1b, 0xe7, 0x23, 0xee, 0x19, 0xed, 0xf9, 0x0f, 0xfc, 0x19, 0xfd, 0x0a, 0x03, 0xdd, 0xd9, 0xd3, 0x23, 0x35, 0x99, 0x12, 0xe4, 0xdf, 0x1c, 0x0a, 0x1b, 0xd0, 0x08, 0xcb, 0x0f, 0x20, 0x15, 0x0d, 0xd2, 0x04, 0xef, 0xe2, 0x11, 0x0d, 0x04, 0xed, 0x08, 0xd9, 0xda, 0x40, 0x23, 0x2d, 0x11, 0xfc, 0xef, 0x1b, 0xe1, 0xe5, 0xf3, 0x2b, 0xc5, 0xee, 0x0f, 0x9d, 0x1f, 0x2d, 0x0f, 0xe8, 0x28, 0xc9, 0x02, 0x16, 0xcf, 0x2b, 0xe0, 0x04, 0x29, 0xed, 0xf0, 0x81, 0xf5, 0x0e, 0x0b, 0xf8, 0x16, 0xe3, 0xd8, 0x0e, 0x20, 0xeb, 0x0a, 0xf4, 0xed, 0xef, 0x0b, 0x1c, 0xe5, 0xe8, 0x12, 0xf5, 0xe9, 0x02, 0xf2, 0xf8, 0xee, 0x14, 0xe6, 0xf9, 0x0b, 0x02, 0x27, 0xed, 0x26, 0x05, 0x0b, 0xf4, 0xfc, 0xf3, 0xfb, 0x14, 0xd5, 0x19, 0x09, 0x02, 0x1e, 0x03, 0xf9, 0xed, 0x0c, 0xd1, 0x00, 0x29, 0xfb, 0x07, 0xf6, 0x17, 0xee, 0x0c, 0xfe, 0x14, 0x00, 0xf2, 0x09, 0x24, 0xda, 0xfc, 0x18, 0xf9, 0x0b, 0xf4, 0xf6, 0xe6, 0xe9, 0xf6, 0x06, 0x0f, 0xfe, 0x03, 0x19, 0x04, 0xfa, 0xf4, 0xe5, 0x26, 0x07, 0x09, 0x09, 0xde, 0x37, 0xfd, 0x05, 0xdf, 0xf2, 0xde, 0xfd, 0x01, 0x0c, 0x03, 0x0a, 0xdc, 0xd4, 0x03, 0x03, 0xf9, 0xe6, 0x2c, 0xf6, 0xf4, 0xf9, 0x07, 0x05, 0x92, 0x0a, 0xec, 0xe3, 0xef, 0xde, 0x08, 0x09, 0xdd, 0xdd, 0xec, 0xfe, 0x21, 0x1e, 0xf7, 0x0c, 0xbc, 0x04, 0xe9, 0xf1, 0x05, 0xdb, 0x0e, 0x02, 0x11, 0x12, 0x7d, 0xf7, 0x1d, 0xe4, 0xd1, 0x0b, 0x81, 0xe6, 0xa1, 0x39, 0xff, 0x25, 0x09, 0xff, 0xf0, 0x1b, 0xfd, 0x05, 0xfa, 0xe2, 0x20, 0xf0, 0xec, 0x10, 0x34, 0x1e, 0xeb, 0xe9, 0xe5, 0x07, 0xd8, 0x2a, 0xed, 0x4b, 0x02, 0xda, 0x22, 0xde, 0x02, 0xec, 0x0c, 0x0a, 0xef, 0xcb, 0xd5, 0x30, 0x3e, 0xe3, 0xec, 0xf9, 0xfd, 0x18, 0xfb, 0xef, 0xc8, 0xfa, 0x05, 0xf5, 0xfe, 0x18, 0xe5, 0x00, 0x0a, 0xf1, 0x08, 0xd9, 0x01, 0x00, 0x16, 0x1b, 0x07, 0x0a, 0xd9, 0x04, 0xd6, 0xed, 0xeb, 0x32, 0xa7, 0x0e, 0xe6, 0x04, 0x18, 0xe6, 0x1a, 0x1b, 0xf5, 0x29, 0xfa, 0xf2, 0x09, 0xeb, 0xba, 0x0c, 0xd6, 0x02, 0xf1, 0xd3, 0x25, 0x15, 0xfa, 0x1c, 0xed, 0xd9, 0xf2, 0x12, 0x26, 0x24, 0xd2, 0xff, 0x12, 0xf9, 0x02, 0xf8, 0x11, 0xf7, 0x06, 0x32, 0x0a, 0x12, 0xe1, 0xf6, 0xfc, 0x10, 0x15, 0xff, 0xae, 0x0c, 0x1e, 0xeb, 0x02, 0xf6, 0x00, 0x20, 0x51, 0xf1, 0x13, 0xe1, 0xea, 0x0e, 0xf0, 0xf1, 0xc6, 0xcb, 0x10, 0xf0, 0x57, 0x03, 0x78, 0x39, 0xf8, 0x08, 0x54, 0x09, 0x17, 0x23, 0xa6, 0x3a, 0xf2, 0x49, 0x0f, 0x10, 0xc7, 0xc0, 0xc4, 0x1d, 0x05, 0x01, 0xe4, 0x04, 0x06, 0xcd, 0x22, 0x1d, 0x81, 0xa2, 0xf3, 0xf0, 0x26, 0x37, 0xee, 0x72, 0xc0, 0x0f, 0xd5, 0xfa, 0x0b, 0x1a, 0x0a, 0x03, 0x33, 0x99, 0x08, 0x03, 0xce, 0x34, 0x0a, 0xef, 0x02, 0xf3, 0xed, 0x03, 0x2d, 0xec, 0x84, 0xfd, 0x04, 0x3a, 0xe5, 0xef, 0xd3, 0x00, 0xeb, 0x06, 0xd4, 0x31, 0xd8, 0x38, 0xec, 0x17, 0x3a, 0xe0, 0x05, 0x06, 0x0e, 0xde, 0x14, 0x06, 0xfc, 0x4e, 0x27, 0x02, 0xac, 0xf9, 0x00, 0x2a, 0x0c, 0x14, 0xfd, 0x16, 0x4d, 0xf5, 0x2c, 0xc5, 0x0c, 0x10, 0x1c, 0xce, 0x1b, 0xc3, 0x26, 0xde, 0xc7, 0xc5, 0x0d, 0x08, 0xb5, 0xe8, 0x14, 0xdf, 0x0b, 0xed, 0x10, 0xfc, 0xfa, 0x15, 0xda, 0x0f, 0x10, 0xf9, 0x20, 0x08, 0x37, 0x2d, 0xf5, 0x22, 0x2d, 0xc3, 0x21, 0x03, 0x1b, 0xc8, 0xaa, 0xf1, 0x3a, 0x2b, 0x03, 0xaf, 0xcf, 0xdf, 0x14, 0x16, 0xcc, 0xf9, 0x1d, 0x13, 0x09, 0xad, 0xef, 0x2c, 0xf3, 0xc6, 0x2b, 0x06, 0x2f, 0xca, 0xd1, 0xd9, 0xf2, 0x0c, 0xff, 0x24, 0xfe, 0x14, 0xdb, 0x05, 0x16, 0xe5, 0x46, 0x66, 0xfd, 0x7f, 0xd8, 0xb1, 0x2b, 0xeb, 0x1c, 0xc7, 0xe1, 0x09, 0xe8, 0xea, 0x05, 0x3c, 0xfe, 0xeb, 0x0c, 0xfe, 0xf9, 0xea, 0xf7, 0x35, 0xf7, 0xd5, 0xf0, 0x25, 0x17, 0x33, 0xdd, 0xd7, 0xd5, 0x04, 0xf3, 0xd8, 0x2d, 0x06, 0xe8, 0xe1, 0xed, 0x15, 0xeb, 0x3c, 0x02, 0x0a, 0x11, 0x2f, 0x17, 0xfc, 0x08, 0x4c, 0x0f, 0xd6, 0xff, 0xec, 0x03, 0xdf, 0x13, 0x00, 0xd9, 0xd5, 0x1b, 0x5c, 0x0f, 0x15, 0x03, 0x02, 0x1a, 0xe3, 0xf4, 0x17, 0x35, 0xde, 0x0e, 0xdf, 0x09, 0xfc, 0xc9, 0xe6, 0xd6, 0xf5, 0x11, 0xe5, 0xf1, 0xe8, 0x06, 0x2f, 0xe0, 0x0d, 0xf6, 0x10, 0x15, 0x06, 0x0a, 0x09, 0xe8, 0xe9, 0xdb, 0x25, 0x2d, 0x79, 0x14, 0xde, 0xd6, 0x1a, 0xb7, 0xfb, 0x06, 0xdc, 0x17, 0x44, 0x30, 0x16, 0xe6, 0x0f, 0x12, 0x09, 0xf3, 0x10, 0xde, 0xeb, 0xfa, 0xee, 0xd8, 0x11, 0xeb, 0x0b, 0xf0, 0xff, 0xdf, 0xf2, 0x2a, 0xdf, 0xf7, 0x18, 0xf1, 0xd3, 0x25, 0xe7, 0x1f, 0xfa, 0x24, 0x07, 0x81, 0xf6, 0xf6, 0x0f, 0x41, 0x18, 0x22, 0x0d, 0xfc, 0x2c, 0xfd, 0xe0, 0xf5, 0x32, 0xf3, 0x12, 0x39, 0xf2, 0x08, 0xde, 0xe1, 0xf4, 0x04, 0x1b, 0x07, 0x11, 0x03, 0xe9, 0xd5, 0x19, 0xe6, 0xe8, 0x14, 0xf8, 0x0d, 0x03, 0xea, 0xf0, 0x01, 0x26, 0xdc, 0xfb, 0xff, 0x04, 0x0b, 0x12, 0x1a, 0xff, 0xf6, 0xff, 0x06, 0xe1, 0x01, 0x0a, 0x02, 0xfc, 0xee, 0x3c, 0xe5, 0x1c, 0x11, 0x18, 0xe2, 0x10, 0xfc, 0x07, 0xce, 0x09, 0x0c, 0xd6, 0x37, 0x13, 0x02, 0xe5, 0x0c, 0xfd, 0xfd, 0x19, 0xe3, 0x0d, 0x23, 0x08, 0x12, 0x08, 0xf7, 0xee, 0x1f, 0x1e, 0x0f, 0xf6, 0xf6, 0xf4, 0x0a, 0xe4, 0x06, 0x14, 0x24, 0xe9, 0x0b, 0x04, 0x00, 0x0f, 0x0b, 0x0c, 0x12, 0x04, 0xda, 0xe7, 0xfd, 0xe5, 0xfe, 0x26, 0x06, 0xfb, 0x1f, 0xfd, 0x17, 0x18, 0xc6, 0x05, 0x13, 0x17, 0xfd, 0x16, 0x11, 0xde, 0x18, 0xe6, 0x0c, 0xfe, 0xf9, 0xef, 0xff, 0xf8, 0xeb, 0x09, 0xf4, 0xed, 0xda, 0x24, 0x17, 0xf2, 0xef, 0x1e, 0xf6, 0xe6, 0x08, 0x02, 0xf7, 0x00, 0xfc, 0x18, 0xf1, 0x10, 0xf3, 0xfa, 0xd9, 0xf1, 0x0d, 0x30, 0x08, 0x18, 0xee, 0x12, 0xc7, 0xf6, 0xd7, 0xea, 0xf1, 0xf6, 0xd1, 0x0b, 0xec, 0x15, 0xf3, 0x2b, 0xfa, 0xf8, 0x0a, 0x14, 0xf2, 0xf8, 0x28, 0xe4, 0xed, 0xe2, 0xf7, 0xee, 0xfa, 0x09, 0x03, 0x31, 0xfb, 0x2d, 0x03, 0xf0, 0x0b, 0x23, 0x33, 0xd9, 0x00, 0xf8, 0xf9, 0x07, 0x16, 0x1d, 0x10, 0x08, 0x0d, 0x1e, 0xfc, 0xd6, 0x0e, 0x2c, 0x9e, 0xdb, 0x06, 0x1f, 0xe4, 0xea, 0xe7, 0xde, 0xe4, 0x09, 0xf3, 0x04, 0x09, 0x0e, 0xea, 0x12, 0xe2, 0xef, 0x34, 0xf1, 0x25, 0xf0, 0xff, 0xec, 0xed, 0x1e, 0xfc, 0x3e, 0xff, 0xfd, 0xaa, 0xfa, 0x81, 0xeb, 0x04, 0xc0, 0x1c, 0x0f, 0x28, 0xe0, 0x11, 0xe6, 0xe3, 0x35, 0x14, 0xd9, 0xe6, 0x19, 0xec, 0x16, 0xee, 0x0d, 0xed, 0x1c, 0xf7, 0xdf, 0x1b, 0x06, 0x0f, 0xfe, 0xfa, 0x7f, 0xfe, 0x09, 0xfb, 0xef, 0x01, 0xf0, 0xe3, 0x18, 0x03, 0x04, 0xdd, 0x21, 0xf8, 0x0f, 0xf2, 0xa4, 0xaa, 0xdd, 0xf9, 0xff, 0x1e, 0xd8, 0x57, 0xd8, 0xdc, 0x07, 0xd8, 0xab, 0x13, 0xe6, 0xe6, 0xf2, 0x0a, 0xd2, 0xfb, 0xf7, 0xfb, 0x14, 0xec, 0x05, 0x12, 0xe9, 0x14, 0x0b, 0x03, 0xc5, 0x10, 0x1d, 0xbb, 0x01, 0xe5, 0x15, 0xd7, 0xfb, 0xe7, 0xe9, 0xe4, 0xdf, 0xfc, 0x19, 0x43, 0x3a, 0xfe, 0xb5, 0x95, 0x02, 0x04, 0xf9, 0xec, 0xe0, 0x24, 0xfc, 0xe1, 0x00, 0xbb, 0xc9, 0xfb, 0xe7, 0x1e, 0xf7, 0x09, 0x35, 0xd9, 0xd5, 0xfb, 0x3a, 0xe7, 0x11, 0xc3, 0x14, 0x11, 0xf8, 0xee, 0x04, 0x00, 0x03, 0x04, 0xf1, 0xeb, 0xe5, 0x11, 0x02, 0x30, 0x05, 0x2a, 0xfe, 0x0c, 0xf0, 0xe2, 0x2a, 0x05, 0xd7, 0x2e, 0xad, 0xea, 0x41, 0x22, 0xd7, 0x63, 0x17, 0x2e, 0x46, 0xe3, 0xeb, 0xe7, 0x14, 0xef, 0x25, 0xfd, 0xf7, 0x0f, 0xf1, 0x1a, 0xbe, 0x13, 0x17, 0xdd, 0xeb, 0x2a, 0x46, 0xde, 0xf4, 0x0e, 0xee, 0xe3, 0x11, 0x22, 0x18, 0xd9, 0x00, 0xfa, 0xd0, 0x40, 0x1d, 0xbd, 0xe3, 0x2f, 0xb3, 0x02, 0xc9, 0xfd, 0x3e, 0xc2, 0x4b, 0x88, 0xea, 0xc3, 0x10, 0xef, 0xf6, 0x35, 0x25, 0xfd, 0x09, 0xee, 0x1f, 0x5e, 0x0e, 0xd3, 0xf2, 0xb8, 0x20, 0xe8, 0xeb, 0xc8, 0x10, 0x1c, 0xfe, 0x02, 0x4f, 0xf0, 0xda, 0x21, 0xfd, 0x06, 0xf8, 0xc9, 0x12, 0xdb, 0x0b, 0x35, 0x11, 0xc5, 0xf6, 0x17, 0xdd, 0x46, 0xf4, 0x81, 0xf1, 0xfe, 0xe5, 0x1d, 0xea, 0xe1, 0x03, 0xb2, 0x40, 0x3c, 0xef, 0xd7, 0xfd, 0x26, 0xf3, 0xf1, 0x07, 0x26, 0x13, 0xf6, 0x2b, 0x26, 0x19, 0xf1, 0x05, 0xef, 0xfc, 0x0f, 0x18, 0xba, 0xf1, 0xc6, 0x06, 0x3a, 0xda, 0xf7, 0x40, 0xe3, 0x12, 0x1b, 0xbb, 0xea, 0x23, 0xb5, 0xe3, 0x62, 0x0f, 0xa9, 0xf0, 0x17, 0x06, 0x30, 0xc2, 0x16, 0xee, 0xdd, 0x9a, 0x62, 0x67, 0x81, 0x08, 0x32, 0x16, 0xf3, 0xe4, 0xd2, 0x14, 0x08, 0xcc, 0x0b, 0x37, 0xf5, 0x0f, 0x2e, 0x34, 0xee, 0xe8, 0xc8, 0xf8, 0xfc, 0x0e, 0x0d, 0x0f, 0x01, 0xf2, 0x13, 0xee, 0xfb, 0x0f, 0xda, 0x07, 0x8a, 0xf8, 0x17, 0x12, 0x0c, 0xfb, 0x03, 0x3f, 0x0e, 0x04, 0x26, 0xf3, 0x0c, 0xf2, 0x10, 0x03, 0x1a, 0x08, 0xe5, 0x09, 0x02, 0x0a, 0xd1, 0x00, 0xf7, 0x09, 0xed, 0x1b, 0x03, 0x0e, 0x22, 0x06, 0x0a, 0xec, 0x19, 0xe2, 0x0c, 0x04, 0x09, 0xfe, 0xf7, 0xef, 0xe1, 0x0d, 0x05, 0xfa, 0xdc, 0xf6, 0xfd, 0x0f, 0xfa, 0xf3, 0x07, 0x09, 0x03, 0xef, 0xf8, 0x00, 0xf6, 0x0c, 0xed, 0xf1, 0x1a, 0xf7, 0x10, 0xf0, 0xf8, 0xec, 0xe4, 0xd9, 0xe6, 0xfa, 0xea, 0x02, 0xf0, 0x23, 0xf2, 0x2d, 0x0e, 0xfa, 0xf3, 0xfc, 0x17, 0xea, 0x0e, 0x20, 0x0c, 0xf0, 0xd6, 0x08, 0xfd, 0xf1, 0x1e, 0xf5, 0xe6, 0x0e, 0x0e, 0x15, 0x30, 0x27, 0xfb, 0xf6, 0xf3, 0x02, 0xdc, 0x17, 0x0a, 0x11, 0xf1, 0xd6, 0x15, 0x11, 0x48, 0xd8, 0xb8, 0x25, 0x02, 0xe7, 0x83, 0x99, 0x2f, 0x48, 0x0f, 0xc9, 0xda, 0x02, 0xf6, 0xd2, 0xfc, 0xea, 0x19, 0x01, 0x06, 0xf6, 0x01, 0xd9, 0xd5, 0x29, 0x11, 0xff, 0xe5, 0x0b, 0x12, 0xe6, 0x5d, 0xfe, 0x0f, 0x16, 0x08, 0xf7, 0x0f, 0xba, 0xe2, 0x18, 0xea, 0x04, 0x10, 0x14, 0xe4, 0x07, 0x5c, 0xdf, 0xfe, 0x0b, 0x1d, 0x23, 0xd2, 0x10, 0xfc, 0xd4, 0xf5, 0xe9, 0x06, 0x31, 0xd1, 0xd9, 0x04, 0xd7, 0xeb, 0xed, 0xf7, 0x06, 0x18, 0x03, 0x04, 0xed, 0xfd, 0xe3, 0xf4, 0xb4, 0x17, 0x08, 0xd3, 0x1a, 0x04, 0xeb, 0xec, 0xf4, 0xe8, 0x04, 0x17, 0x23, 0x03, 0x28, 0x0c, 0xed, 0x14, 0xfe, 0xed, 0x14, 0x06, 0x18, 0x10, 0xe8, 0xd7, 0xcd, 0x66, 0x81, 0xbe, 0xd4, 0x40, 0x6a, 0x93, 0xf3, 0xd4, 0xf2, 0x01, 0xee, 0x18, 0xf6, 0x22, 0x44, 0xd4, 0x14, 0xfd, 0x1e, 0xf8, 0xf6, 0x01, 0x16, 0xd3, 0xf1, 0xf8, 0xf2, 0x1b, 0x15, 0xec, 0x09, 0x26, 0x00, 0xe0, 0xdb, 0xc0, 0xe0, 0x1f, 0x23, 0x0f, 0xf3, 0x1e, 0x0f, 0xea, 0x0e, 0xee, 0x03, 0xe0, 0x07, 0xdc, 0xfa, 0x17, 0x06, 0x17, 0x0a, 0xff, 0x25, 0xfb, 0x20, 0x0d, 0xfc, 0xf4, 0xfb, 0xfc, 0xe1, 0xf6, 0xf3, 0xf4, 0x00, 0xf4, 0x11, 0xee, 0x02, 0xf0, 0xea, 0x13, 0x09, 0xdd, 0xfd, 0x00, 0xea, 0x0b, 0xcf, 0xe9, 0xe6, 0x17, 0x09, 0xf8, 0x17, 0x0f, 0xfb, 0xbe, 0xee, 0xff, 0xf4, 0xf5, 0x2b, 0x00, 0x0c, 0xea, 0x13, 0x28, 0x1c, 0xfa, 0xfa, 0x10, 0x27, 0xc6, 0x13, 0xf1, 0xec, 0x16, 0xef, 0xfd, 0x02, 0xdd, 0x0d, 0x05, 0xf5, 0x0e, 0xe6, 0x15, 0xc7, 0xe0, 0xfe, 0xd1, 0x02, 0x08, 0x05, 0x09, 0x11, 0xe7, 0xf2, 0x24, 0xdb, 0xe6, 0x0f, 0xe9, 0x1f, 0xc2, 0xd7, 0x03, 0xfb, 0x04, 0x27, 0xfa, 0xf3, 0xec, 0x01, 0x1c, 0xfd, 0xf2, 0xf4, 0x04, 0x2e, 0xa8, 0x0c, 0xfb, 0xe7, 0x2e, 0xfa, 0x06, 0xf9, 0xf9, 0x05, 0x0f, 0xc3, 0x1f, 0xd1, 0x0e, 0xad, 0x81, 0xc3, 0xcc, 0x07, 0x03, 0xef, 0x07, 0xf6, 0xc8, 0x04, 0x1f, 0xe3, 0xec, 0xc2, 0x51, 0x98, 0xf5, 0x1e, 0xde, 0x12, 0xaa, 0x13, 0xe8, 0xda, 0x25, 0x17, 0xd8, 0xc6, 0x04, 0x1c, 0xd6, 0xf2, 0xe9, 0x35, 0xd7, 0x0c, 0x15, 0x11, 0xc6, 0xef, 0xf8, 0x2f, 0x19, 0x2a, 0x4e, 0x0a, 0x0f, 0xf3, 0xb7, 0xf6, 0xd9, 0x15, 0x43, 0x8d, 0x03, 0xd7, 0xdc, 0x03, 0x31, 0x1f, 0x0b, 0xd5, 0xed, 0xd3, 0x46, 0x08, 0x01, 0x17, 0xfe, 0xff, 0x87, 0x49, 0x28, 0x0e, 0xd5, 0xdd, 0xe0, 0x07, 0xfd, 0x03, 0x1d, 0xfe, 0xfc, 0xe3, 0xe8, 0xee, 0xcc, 0x57, 0x02, 0x2d, 0x28, 0x35, 0x2e, 0x16, 0x28, 0x35, 0xb7, 0xc2, 0x0b, 0xd1, 0x09, 0x16, 0x50, 0x7f, 0xd6, 0xe0, 0x0f, 0x10, 0x09, 0xda, 0xfa, 0xf8, 0xe7, 0xf6, 0x3c, 0xf4, 0x44, 0xf3, 0x2b, 0x08, 0xea, 0xff, 0xf4, 0x2b, 0xc8, 0xc0, 0x0b, 0xe8, 0xfd, 0xe2, 0x0e, 0x19, 0xcf, 0xf5, 0x30, 0xe4, 0x1b, 0xf9, 0xfe, 0xcb, 0x1e, 0xef, 0xb4, 0x49, 0x56, 0xf0, 0xff, 0x2f, 0xe2, 0x23, 0xd5, 0xde, 0x31, 0xc3, 0x02, 0x48, 0xf1, 0x35, 0xa8, 0x2c, 0xef, 0xea, 0xdd, 0xde, 0x1d, 0xbd, 0x28, 0xfe, 0x7f, 0x13, 0x9c, 0x37, 0xad, 0xfa, 0x48, 0x13, 0xd0, 0xf4, 0x26, 0x26, 0x05, 0x1f, 0xe7, 0x03, 0xd8, 0xd9, 0x40, 0xe6, 0xe2, 0x9f, 0xd8, 0xd6, 0xf5, 0x23, 0xda, 0x3a, 0x01, 0x12, 0xa9, 0x0a, 0x2b, 0xc6, 0x0a, 0x0d, 0xa5, 0x18, 0x13, 0x28, 0x0d, 0x49, 0x8b, 0x9f, 0x06, 0x22, 0xd3, 0xc6, 0xd6, 0xfa, 0x51, 0x1b, 0x3d, 0x0f, 0xcf, 0x1a, 0x06, 0xc5, 0xc9, 0xdb, 0xff, 0xc3, 0xf7, 0xb8, 0xdd, 0xda, 0xab, 0x21, 0xd0, 0x1c, 0xf1, 0xfa, 0x15, 0xf8, 0xe5, 0x02, 0x10, 0xeb, 0xec, 0xcd, 0x33, 0x0f, 0x24, 0x09, 0xce, 0xeb, 0x2e, 0x22, 0xfe, 0xce, 0xae, 0x09, 0xfe, 0xe3, 0x0b, 0xfa, 0x64, 0x72, 0x3a, 0x0d, 0xf5, 0x14, 0xef, 0xe7, 0x08, 0x04, 0xe3, 0x08, 0xf5, 0x05, 0x0c, 0x70, 0xed, 0x66, 0xfa, 0x03, 0x35, 0x13, 0xdb, 0x05, 0x10, 0xfc, 0x1a, 0xd4, 0xe6, 0x0e, 0x0a, 0x18, 0xc8, 0x26, 0xfa, 0xda, 0xf8, 0xb7, 0x02, 0xd5, 0xca, 0x1b, 0x13, 0x87, 0x3a, 0x7f, 0x2a, 0xe0, 0x50, 0x07, 0xe1, 0xb8, 0x12, 0xd7, 0x0a, 0xf7, 0xe6, 0xc7, 0xf9, 0x00, 0xff, 0xd1, 0x1f, 0x15, 0xcd, 0xce, 0x2c, 0xf1, 0x12, 0xc9, 0xd6, 0x26, 0xe2, 0xb1, 0xfb, 0xdf, 0x9e, 0xec, 0x76, 0xfc, 0x3c, 0x3e, 0xc8, 0xe0, 0x29, 0x20, 0x15, 0x34, 0x15, 0x1a, 0x49, 0x09, 0x20, 0x9d, 0xff, 0xa0, 0x35, 0xfc, 0xf5, 0xe2, 0xe0, 0xbc, 0x09, 0x19, 0xdb, 0xf0, 0x02, 0x04, 0x0e, 0x18, 0x12, 0x91, 0xb8, 0xe0, 0xdd, 0x35, 0xf6, 0xaf, 0x23, 0xee, 0xf5, 0xe6, 0x0e, 0x1b, 0xd6, 0x1a, 0xfe, 0x0b, 0x03, 0xf3, 0xe7, 0xe2, 0x22, 0x88, 0xfa, 0x14, 0x3e, 0xb1, 0x20, 0xe0, 0x19, 0xa4, 0xef, 0xf8, 0x1a, 0xdd, 0xd0, 0x2d, 0x20, 0x19, 0xe3, 0xe7, 0x56, 0x2b, 0xe5, 0xf5, 0xd7, 0x20, 0xfb, 0x36, 0x15, 0x2e, 0xe5, 0xfd, 0xf7, 0x12, 0xc1, 0xcd, 0x41, 0x12, 0x2b, 0x09, 0x2d, 0xf1, 0xda, 0xf5, 0x2c, 0x14, 0xf2, 0xfe, 0x1c, 0xd8, 0x0f, 0xf8, 0x10, 0x21, 0x00, 0x06, 0x04, 0x20, 0x0f, 0xde, 0xe5, 0xfc, 0xea, 0xec, 0x21, 0x02, 0xfe, 0xe7, 0xd2, 0xcc, 0x0f, 0x0f, 0x16, 0x3d, 0x18, 0xf3, 0xd6, 0xbb, 0xec, 0x0e, 0x81, 0xc3, 0xde, 0x0e, 0x03, 0x26, 0x02, 0x23, 0x08, 0xd3, 0x1c, 0xd3, 0xe9, 0x0c, 0x0a, 0x17, 0xd4, 0x0e, 0x11, 0x1d, 0xdf, 0xe8, 0xef, 0xf8, 0x05, 0xd1, 0x0d, 0x13, 0x33, 0xf9, 0x32, 0x35, 0x23, 0xec, 0xee, 0x2a, 0x0c, 0xe6, 0xff, 0x1e, 0x06, 0xbc, 0xee, 0x24, 0x24, 0xea, 0x09, 0xf1, 0xf3, 0x10, 0x17, 0x11, 0x02, 0x11, 0xed, 0xfe, 0x09, 0xbe, 0xb2, 0xfe, 0x09, 0xf0, 0x25, 0xec, 0xbb, 0x19, 0x06, 0x08, 0x0b, 0xd1, 0xe4, 0x1a, 0xec, 0xf1, 0xd8, 0x13, 0xd0, 0x4a, 0x54, 0x0d, 0xe9, 0x05, 0xe7, 0xe4, 0x22, 0x0f, 0xff, 0xf5, 0xed, 0x35, 0xf9, 0x0d, 0x08, 0x3f, 0x05, 0x09, 0x31, 0x0a, 0xf0, 0xf5, 0x20, 0x6c, 0x00, 0xe8, 0xd6, 0x4d, 0x0c, 0xec, 0xa0, 0x4f, 0x35, 0x09, 0x07, 0x1f, 0xfe, 0xf9, 0x3c, 0xd9, 0x19, 0x13, 0xf9, 0xf3, 0x19, 0xd5, 0xcd, 0xef, 0xf7, 0x2f, 0xdd, 0xb4, 0xe0, 0xd3, 0xf2, 0x47, 0x16, 0x55, 0x04, 0xfa, 0x25, 0xbb, 0x19, 0xe5, 0x1a, 0xf2, 0x27, 0x02, 0x58, 0xf1, 0xda, 0xe7, 0xdd, 0x12, 0xec, 0x1f, 0x00, 0xea, 0x13, 0x2a, 0x03, 0xb2, 0xf4, 0x13, 0xf7, 0x1c, 0x04, 0x0f, 0xcd, 0xfe, 0xdf, 0xdb, 0xf7, 0xef, 0xd7, 0x1d, 0x2c, 0x30, 0xd4, 0xe6, 0xf1, 0xd6, 0xcc, 0x18, 0x1c, 0xf1, 0x3e, 0x1a, 0x10, 0xcf, 0x07, 0xfa, 0xf6, 0xdf, 0xd2, 0x04, 0xee, 0x2b, 0xd0, 0xfe, 0xef, 0x28, 0xa4, 0xde, 0x0a, 0x14, 0x2c, 0xf1, 0xdf, 0x1a, 0x2c, 0xef, 0x1b, 0x37, 0x07, 0xc6, 0x7f, 0xfd, 0xce, 0xf0, 0xaa, 0x4a, 0x0a, 0x32, 0x3c, 0x04, 0xcd, 0x00, 0x11, 0xfe, 0xf2, 0xfd, 0x0f, 0xb6, 0xfd, 0x20, 0x11, 0x31, 0x22, 0x18, 0xc2, 0xfb, 0x2f, 0xf8, 0xf1, 0x2b, 0xfe, 0xdf, 0x65, 0x08, 0xf7, 0xed, 0x04, 0x05, 0x18, 0xc1, 0xfa, 0x50, 0x0c, 0x15, 0x09, 0x15, 0xda, 0xe0, 0x00, 0xeb, 0xef, 0x03, 0x03, 0x23, 0xec, 0xf5, 0x02, 0x00, 0x06, 0x0d, 0xfb, 0x0d, 0xd7, 0xce, 0x13, 0xdf, 0x06, 0xe1, 0x2a, 0x1c, 0xe8, 0xf3, 0xf3, 0xfe, 0x09, 0x11, 0xfc, 0x43, 0xc7, 0xf2, 0x17, 0xee, 0xe4, 0x0f, 0x35, 0xfd, 0x0d, 0xfe, 0xd7, 0xe9, 0xfb, 0xda, 0x07, 0xe3, 0x09, 0xf9, 0xf2, 0x0f, 0x03, 0xf8, 0xe7, 0xea, 0xf0, 0xf2, 0xef, 0xf6, 0xf9, 0xe0, 0x0a, 0xfd, 0x2e, 0xf2, 0xfe, 0x14, 0x16, 0xf9, 0x03, 0xde, 0x04, 0x04, 0x18, 0x32, 0xfd, 0xf2, 0xef, 0xf1, 0x21, 0x19, 0x00, 0x09, 0xf6, 0xec, 0x03, 0xeb, 0x11, 0x04, 0xd7, 0xe7, 0xf0, 0xf2, 0x00, 0x03, 0x00, 0xfa, 0xe6, 0x17, 0xfb, 0x09, 0xe9, 0x00, 0x0e, 0xfa, 0x20, 0x1b, 0x06, 0x0f, 0x04, 0x01, 0x03, 0x0f, 0xe5, 0x0d, 0xdd, 0x13, 0xd6, 0x0c, 0x0c, 0x17, 0xed, 0xec, 0xd8, 0x03, 0x0b, 0xd4, 0x81, 0x0a, 0xeb, 0xf4, 0xcf, 0xfd, 0xf4, 0x16, 0xe3, 0x16, 0x06, 0xd8, 0x33, 0x85, 0xad, 0xd4, 0x64, 0x05, 0xdf, 0xde, 0x1c, 0x15, 0xea, 0xfc, 0x40, 0x28, 0x9f, 0xc3, 0x01, 0xb9, 0x46, 0x89, 0x13, 0xf6, 0xfd, 0x3b, 0xd2, 0x76, 0xef, 0x17, 0x97, 0xe0, 0x04, 0xec, 0x4f, 0x12, 0x1d, 0xf8, 0xeb, 0xf3, 0x0e, 0x23, 0xdb, 0x19, 0xb4, 0x3a, 0xd9, 0xce, 0xf8, 0xf7, 0x13, 0xc8, 0x33, 0xf0, 0xb6, 0x11, 0x51, 0xdc, 0x3c, 0xf1, 0xd7, 0xf0, 0x53, 0x00, 0x81, 0xff, 0xf4, 0xf6, 0xd7, 0x1b, 0xce, 0xf0, 0xe8, 0x11, 0xbd, 0xd5, 0xfe, 0x1c, 0x17, 0x2e, 0x1b, 0xfc, 0xe7, 0xdb, 0xb9, 0x2c, 0x19, 0xda, 0x03, 0x03, 0xec, 0xee, 0x19, 0xe3, 0x2a, 0x26, 0x13, 0x09, 0x34, 0x32, 0x08, 0x1a, 0x14, 0x2a, 0x3b, 0xd9, 0x68, 0x9f, 0x48, 0x8f, 0xc5, 0xbb, 0xb6, 0xf8, 0xb4, 0xd2, 0x10, 0x04, 0xfc, 0xd3, 0x0e, 0x03, 0x3f, 0xf1, 0xe4, 0xdf, 0xe1, 0xe6, 0x38, 0x0a, 0xe6, 0x04, 0x27, 0xae, 0xf1, 0x48, 0x0f, 0xe7, 0x1b, 0x22, 0xce, 0xc5, 0xfc, 0x14, 0x0d, 0x0b, 0x45, 0xca, 0xd9, 0xcb, 0x0c, 0x27, 0x9f, 0xd6, 0x17, 0xfd, 0xd6, 0x01, 0x01, 0xfd, 0x0e, 0xa7, 0xf3, 0x00, 0x1c, 0xe4, 0xf6, 0x32, 0xd4, 0xe2, 0xf7, 0x14, 0x04, 0x35, 0x21, 0xf5, 0x0e, 0xe2, 0x41, 0x15, 0x06, 0x0c, 0xf0, 0xe8, 0xc2, 0xc6, 0xf5, 0x28, 0xcf, 0xf0, 0xdd, 0xdd, 0x3e, 0x1b, 0x02, 0xe5, 0x14, 0xf9, 0xd7, 0x2d, 0xe8, 0xf2, 0xea, 0x02, 0x2c, 0x11, 0xee, 0xf1, 0x05, 0xed, 0xd2, 0x05, 0xfd, 0x12, 0xec, 0x15, 0x1a, 0xb8, 0x15, 0xfc, 0x2d, 0x3f, 0xeb, 0xd1, 0x08, 0x05, 0x11, 0x1d, 0xf3, 0x0a, 0xec, 0x06, 0x29, 0xed, 0x04, 0x0a, 0x0c, 0x21, 0xee, 0x07, 0x02, 0x27, 0xfe, 0x1d, 0x08, 0xe1, 0x22, 0xf3, 0x1c, 0x2b, 0xdc, 0x08, 0xdb, 0xf0, 0xe5, 0x25, 0xd3, 0xe9, 0x08, 0x04, 0xe1, 0x2b, 0x00, 0xfb, 0x12, 0x26, 0x1f, 0xdb, 0x13, 0xc9, 0x0e, 0xe4, 0x20, 0x17, 0x24, 0x22, 0x15, 0x33, 0xf2, 0x8d, 0x3f, 0x1b, 0x36, 0xe8, 0x2b, 0x81, 0xff, 0xee, 0xd4, 0xed, };
const int32_t bias2[32] = {655, -2885, 9104, -831, 13509, -193, 23941, -3954, 2615, -650, 5306, -4899, -263, -689, -2682, 1924, 11070, 8120, 431, 2956, 1111, -6316, 17860, 11257, -6643, 165, 7713, 6174, 8095, 123, 14524, 16342, };
const int32_t shift2[32] = {-9, -8, -9, -7, -9, -8, -9, -9, -6, -9, -7, -10, -8, -9, -9, -8, -9, -8, -8, -8, -9, -8, -9, -9, -8, -9, -10, -9, -9, -9, -9, -10, };
const int32_t multiplier2[32] = {1348362769, 1592032666, 1217849194, 1161397533, 2007699324, 1085438558, 1180864440, 1576861204, 1389729061, 1201105487, 1807436411, 1808252168, 1219678851, 1496367022, 1844532435, 1503366373, 1235411167, 1759666147, 1925260580, 1957704157, 1393372541, 1762044026, 1716161564, 2008859451, 1315359549, 1767119754, 1846212231, 1983715813, 1929244363, 1688746992, 1755864759, 1929337291, };
const unsigned char CHWweight3[288] = {0x7b, 0x76, 0x49, 0x75, 0x7f, 0x5e, 0x6d, 0x75, 0x53, 0x81, 0xcf, 0xbf, 0xa6, 0xcd, 0xc1, 0xd2, 0xe7, 0xe2, 0x6b, 0x7f, 0x4e, 0x62, 0x72, 0x61, 0x6b, 0x6d, 0x52, 0x6a, 0x5e, 0x73, 0x7f, 0x60, 0x73, 0x73, 0x75, 0x61, 0xc0, 0xac, 0x9e, 0xab, 0xa2, 0x81, 0xcf, 0xad, 0xa3, 0x1f, 0x3c, 0x7f, 0x29, 0x37, 0x7f, 0x29, 0x35, 0x53, 0xcc, 0xb4, 0x81, 0xb5, 0xc6, 0xb9, 0xbf, 0xca, 0xe1, 0xf9, 0x01, 0x04, 0xb8, 0xb4, 0x9a, 0x9e, 0x89, 0x81, 0xcf, 0x9f, 0xcf, 0x99, 0xb6, 0xe3, 0x81, 0x8e, 0xc2, 0x45, 0x45, 0x43, 0x37, 0x2a, 0xed, 0x81, 0x9a, 0xb4, 0x7f, 0x71, 0x47, 0x5a, 0x48, 0x1e, 0x18, 0x25, 0x09, 0x9f, 0xb3, 0x81, 0x34, 0x27, 0x2e, 0x35, 0x3e, 0x44, 0xbc, 0xbf, 0xbf, 0x9a, 0xb9, 0x9d, 0x81, 0xbb, 0xa6, 0x42, 0x70, 0x43, 0x5f, 0x7f, 0x51, 0x46, 0x4d, 0x36, 0x81, 0x9e, 0xc6, 0xa4, 0xbe, 0xd9, 0xaa, 0xbb, 0xe9, 0x70, 0x7f, 0x51, 0x65, 0x7c, 0x49, 0x39, 0x4d, 0x33, 0x9b, 0xc9, 0x91, 0xbc, 0xf8, 0xa1, 0xbc, 0xbc, 0x81, 0xcb, 0xbb, 0x81, 0xcb, 0xc8, 0x94, 0xcb, 0xc4, 0xc7, 0x3f, 0x3a, 0x3a, 0x7f, 0x5c, 0x55, 0x6e, 0x5a, 0x50, 0xc4, 0xc2, 0xbc, 0xde, 0xce, 0x98, 0xec, 0xcb, 0x81, 0x29, 0x60, 0x62, 0x3e, 0x7f, 0x77, 0x3b, 0x65, 0x67, 0x7f, 0x6b, 0x34, 0x5e, 0x5f, 0x32, 0x31, 0x30, 0x22, 0x88, 0xcd, 0xf8, 0x81, 0xe3, 0xfd, 0x9e, 0xcd, 0xe2, 0x29, 0x0b, 0xf9, 0xec, 0xf8, 0xf9, 0xd1, 0xd7, 0x81, 0x55, 0x5e, 0x7f, 0x55, 0x41, 0x53, 0x66, 0x7c, 0x6a, 0x6e, 0x75, 0x60, 0x7f, 0x73, 0x5d, 0x52, 0x52, 0x42, 0xa3, 0x9a, 0xb8, 0x9f, 0x81, 0xaa, 0xc4, 0x9b, 0xbf, 0xb6, 0xab, 0xa8, 0xca, 0xba, 0x90, 0xda, 0xb6, 0x81, 0xcf, 0xac, 0xb9, 0xc4, 0xbf, 0xc8, 0xaa, 0x81, 0xad, 0x37, 0x65, 0x7f, 0x5d, 0x74, 0x7d, 0x5f, 0x63, 0x4a, 0x6a, 0x6b, 0x75, 0x7f, 0x5f, 0x6f, 0x7f, 0x53, 0x48, 0xab, 0xbe, 0xc2, 0xb5, 0xcc, 0xaa, 0xb9, 0xb9, 0x81, };
const int32_t offsetBias3[32] = {122539, -63339, 116999, 124437, -68144, 78321, -73422, -70571, -68500, -1822, 65146, -249, -90743, 95891, -74631, 98557, -81647, -74620, 94755, -56097, 102334, 82776, -56746, -20039, 107730, 112781, -97897, -86277, -77522, 113090, 119436, -81965, };
const int32_t offsetRBias3[32] = {0, 0, 0, 0, 0, 0, 0, 0, 0, 0, 0, 0, 0, 0, 0, 0, 0, 0, 0, 0, 0, 0, 0, 0, 0, 0, 0, 0, 0, 0, 0, 0, };
const int32_t shift3[32] = {-5, -7, -6, -6, -8, -6, -6, -6, -8, -6, -8, -5, -7, -3, -6, -7, -6, -7, -7, -8, -6, -7, -7, -5, -7, -6, -5, -7, -7, -4, -6, -6, };
const int32_t multiplier3[32] = {1120579115, 1730376742, 1515941405, 2087839187, 1765960961, 1810879212, 1505315759, 1265955219, 1590717152, 1255392795, 1983438836, 1391091652, 1817452038, 1118355506, 1217376011, 1601914611, 1714422011, 1796015305, 1219588637, 1717312899, 1402138308, 1620844574, 1583201771, 1311993863, 1505379262, 1667168914, 1318404762, 1816993010, 1530723363, 1102942667, 1300033517, 1552269220, };
const unsigned char weight4[2048] = {0x4a, 0xcf, 0x57, 0x18, 0x6c, 0xf0, 0x14, 0x05, 0xcc, 0x6a, 0x9b, 0x81, 0x17, 0xd4, 0x5d, 0x20, 0xcc, 0xd6, 0x9e, 0xc9, 0xd6, 0x20, 0xdc, 0x38, 0x53, 0x86, 0x1b, 0xc6, 0x8a, 0x39, 0xda, 0xb0, 0x13, 0x89, 0x23, 0xf7, 0x98, 0x28, 0xe6, 0xe2, 0xa5, 0x22, 0xb4, 0x81, 0x24, 0x0b, 0x24, 0x06, 0x8f, 0xc2, 0xf0, 0x34, 0xc8, 0xe7, 0x5c, 0x27, 0x72, 0x0b, 0xf2, 0xf7, 0xe2, 0x0e, 0xfd, 0xf6, 0xb2, 0xde, 0x4f, 0xf5, 0x19, 0x2f, 0xdc, 0x08, 0x0b, 0x0a, 0xfc, 0xfb, 0xfa, 0xe9, 0x25, 0x1b, 0x0f, 0xf1, 0x81, 0xd1, 0x0d, 0xfa, 0xca, 0x16, 0xd4, 0xdd, 0x6f, 0xed, 0x0f, 0xf0, 0xec, 0xf6, 0x21, 0xc3, 0xcf, 0xf1, 0xf8, 0x0e, 0xc1, 0xe4, 0x0a, 0x16, 0x26, 0xee, 0x13, 0xce, 0x13, 0xfc, 0xf3, 0x03, 0x81, 0x23, 0x23, 0xd0, 0xb6, 0xd4, 0xe7, 0x01, 0x14, 0xc4, 0xe4, 0xf0, 0xdb, 0xfc, 0xad, 0x3a, 0x55, 0xec, 0x87, 0xb1, 0xe3, 0xec, 0xef, 0xdd, 0x4a, 0x65, 0x5d, 0x03, 0xf9, 0xcf, 0x5f, 0x57, 0xdf, 0x0a, 0xc2, 0x0a, 0xb8, 0x7f, 0x1d, 0xb2, 0x74, 0x00, 0x4d, 0x13, 0x05, 0xc4, 0xcc, 0x22, 0xfb, 0xef, 0xf0, 0xff, 0x28, 0xc9, 0xfb, 0xd1, 0xf4, 0x81, 0x15, 0xed, 0xe0, 0x4e, 0xe5, 0x29, 0x10, 0x2c, 0xef, 0x9b, 0x35, 0x75, 0xf9, 0xb7, 0x18, 0xe5, 0xc2, 0xd8, 0xcb, 0xd0, 0xf7, 0xa1, 0xd7, 0xec, 0x22, 0x29, 0xe2, 0x0f, 0x27, 0x1b, 0x96, 0x9b, 0xbf, 0x20, 0x05, 0xae, 0xfc, 0xe8, 0x81, 0xa3, 0x5d, 0x3d, 0xd2, 0xf2, 0xa6, 0x05, 0x1d, 0xca, 0x0e, 0xd8, 0x1d, 0xde, 0x0a, 0x01, 0xde, 0xa4, 0xde, 0x1b, 0xcd, 0x10, 0xf9, 0x1c, 0xb8, 0xf1, 0x19, 0x1b, 0x2d, 0x05, 0x81, 0x27, 0x01, 0x07, 0xed, 0xc9, 0xfe, 0xdb, 0x38, 0x20, 0x10, 0xcf, 0xe3, 0xeb, 0x1e, 0x07, 0xee, 0x25, 0x29, 0xe3, 0xeb, 0x3e, 0x10, 0x7f, 0x2c, 0x1a, 0x23, 0x1b, 0x20, 0x06, 0xc4, 0x0c, 0xb9, 0x01, 0xf2, 0xd5, 0xde, 0xcc, 0x19, 0xaf, 0xe2, 0xc9, 0xc8, 0x30, 0xd2, 0xda, 0x1c, 0x39, 0x2a, 0xaa, 0xfe, 0xaf, 0xa8, 0xff, 0xd3, 0xf5, 0x3a, 0xc1, 0x36, 0xb3, 0xec, 0xb5, 0x43, 0xea, 0x0e, 0xe7, 0x45, 0xcf, 0x16, 0xc8, 0xc4, 0x2d, 0x81, 0x18, 0xe8, 0x36, 0x60, 0xca, 0xb4, 0x62, 0xd3, 0x1b, 0xe4, 0x21, 0xcc, 0x1d, 0xf2, 0xe5, 0x1d, 0xf2, 0x0e, 0x15, 0x1e, 0xd2, 0x03, 0x40, 0xdd, 0x0e, 0xa0, 0x61, 0x0f, 0x81, 0xfe, 0xcd, 0xe5, 0xb0, 0x57, 0x01, 0xac, 0x94, 0xc9, 0xbc, 0x2b, 0xc0, 0xf4, 0xcf, 0xb8, 0xb2, 0xbe, 0x3d, 0xe0, 0x81, 0x19, 0xea, 0x19, 0xd7, 0x38, 0x1d, 0x03, 0xb6, 0x03, 0xa4, 0xba, 0x1b, 0x15, 0xbe, 0xda, 0xec, 0xdf, 0x02, 0x2e, 0x41, 0xf5, 0x07, 0x06, 0x7f, 0x06, 0x25, 0xa0, 0xc0, 0xeb, 0x05, 0xac, 0xe0, 0x1b, 0xd0, 0x20, 0xd6, 0xef, 0x04, 0xf9, 0x37, 0x0d, 0x28, 0xaf, 0x01, 0x93, 0xea, 0x16, 0xdb, 0xf5, 0xea, 0x06, 0xd9, 0x04, 0x21, 0x28, 0x36, 0x42, 0xb2, 0xec, 0x56, 0x7c, 0x55, 0x35, 0x27, 0xb7, 0xea, 0xfb, 0x64, 0xd7, 0x7b, 0xa3, 0x48, 0x67, 0x0f, 0xf8, 0xf9, 0x0d, 0x44, 0xe8, 0x96, 0x83, 0x12, 0xb0, 0xbf, 0x81, 0x38, 0x38, 0x0d, 0xd9, 0xc1, 0xb9, 0xc3, 0x2f, 0x2a, 0x34, 0x43, 0x43, 0xb7, 0x30, 0xe5, 0xfe, 0x81, 0xf2, 0xa4, 0x14, 0xb3, 0x04, 0xd5, 0xf5, 0xc1, 0xcc, 0x10, 0x9c, 0xb3, 0xe4, 0xb7, 0x9a, 0x59, 0x1e, 0xbf, 0x88, 0xd0, 0xd9, 0xcd, 0xd5, 0x0d, 0x17, 0xf6, 0xb9, 0xad, 0xfb, 0xd5, 0x43, 0x1b, 0xea, 0xf3, 0x81, 0x03, 0x37, 0xb3, 0xdf, 0xe4, 0x36, 0x23, 0x21, 0xc3, 0xd6, 0x12, 0xd4, 0xca, 0x2b, 0x02, 0x1b, 0x9d, 0xf1, 0xcb, 0x3c, 0x0d, 0x5e, 0x3f, 0xd7, 0xaa, 0x81, 0x4b, 0x53, 0x1a, 0xe6, 0xde, 0x11, 0x36, 0xc4, 0x37, 0xfe, 0x4b, 0xd0, 0x00, 0x02, 0xbf, 0xc1, 0x0b, 0xc0, 0xc2, 0xd0, 0x6c, 0x26, 0xe5, 0xb1, 0xd9, 0xda, 0xec, 0x47, 0x31, 0x28, 0x6c, 0xe8, 0x1a, 0xc7, 0x46, 0x08, 0xf0, 0xed, 0xc7, 0x81, 0x26, 0xf4, 0x3c, 0x16, 0xfb, 0x41, 0xbf, 0x03, 0x1a, 0xd7, 0x9a, 0xd3, 0xa5, 0xbb, 0xe7, 0xf0, 0xd1, 0x2f, 0xe7, 0x51, 0x04, 0xff, 0x81, 0xc7, 0x30, 0x18, 0xc2, 0x06, 0xae, 0xb9, 0xe6, 0x26, 0x3c, 0xdc, 0x26, 0xc0, 0x40, 0x15, 0x16, 0x3d, 0xf4, 0x20, 0xf5, 0xcb, 0x07, 0xf1, 0xd7, 0xa3, 0xc6, 0x0e, 0x0e, 0x7b, 0x34, 0x32, 0xb4, 0x12, 0xf2, 0xf6, 0xae, 0x02, 0x01, 0xdf, 0xf5, 0xcc, 0xf3, 0x28, 0x0a, 0x56, 0xd0, 0x7f, 0xe7, 0xf4, 0x53, 0x7b, 0xe9, 0x24, 0x16, 0xa6, 0x16, 0xf7, 0x1a, 0x1d, 0x38, 0x12, 0x3e, 0x96, 0x9a, 0x06, 0x45, 0x34, 0x6f, 0x88, 0x1b, 0x23, 0x16, 0x00, 0xef, 0xdc, 0xd0, 0x19, 0x9b, 0xdb, 0xe6, 0x9a, 0x05, 0x81, 0x43, 0x01, 0xe5, 0xd5, 0xc5, 0xd3, 0xe7, 0x21, 0x55, 0xe8, 0x43, 0xe6, 0xfe, 0x07, 0xeb, 0x18, 0xd6, 0xfd, 0x16, 0xfc, 0xbc, 0xbe, 0x11, 0xc9, 0x1d, 0x65, 0x0a, 0x7f, 0xc5, 0x60, 0x65, 0x4b, 0x8e, 0x29, 0xb1, 0xd3, 0xc0, 0xd2, 0xe1, 0xeb, 0x2e, 0x3f, 0xdf, 0xc8, 0x81, 0xe0, 0x10, 0x37, 0xfa, 0xee, 0xe3, 0xca, 0xc5, 0x3b, 0xf6, 0x08, 0xe9, 0xd6, 0x0f, 0xfe, 0xce, 0x17, 0x01, 0xec, 0xe7, 0xd8, 0x41, 0xc7, 0x17, 0xc5, 0xed, 0xeb, 0xf0, 0x1c, 0xe9, 0xe0, 0x4f, 0x7f, 0x04, 0xf4, 0x30, 0xde, 0x06, 0xff, 0x03, 0xc2, 0xdc, 0xfb, 0x20, 0x13, 0xd2, 0x34, 0xd6, 0x00, 0x18, 0xf7, 0xb3, 0xff, 0x04, 0x05, 0xe4, 0xc0, 0xd9, 0xa4, 0x44, 0x26, 0x24, 0xd7, 0x81, 0x36, 0xe7, 0xf3, 0x51, 0xcd, 0xd6, 0xce, 0x23, 0xf7, 0xc2, 0xf5, 0xd9, 0x20, 0xa0, 0x3e, 0xec, 0xec, 0x55, 0xce, 0xc1, 0xcc, 0xc7, 0xc0, 0xd3, 0xd9, 0xbe, 0x0b, 0xa4, 0x25, 0xac, 0x30, 0xc5, 0x12, 0x98, 0xeb, 0xcd, 0xf2, 0x3f, 0x08, 0xdb, 0x8b, 0xc5, 0x60, 0x55, 0x26, 0xe5, 0x41, 0xfa, 0xc0, 0x4b, 0x81, 0x0c, 0x3c, 0x11, 0x21, 0xf8, 0xff, 0x2f, 0xe9, 0xf2, 0x25, 0x11, 0xcb, 0x32, 0x98, 0xff, 0x6c, 0x04, 0x81, 0x04, 0xd2, 0x15, 0x19, 0xc1, 0x1b, 0x1e, 0xe8, 0x3b, 0xe9, 0x1a, 0xf4, 0xfc, 0x18, 0xc9, 0xaa, 0xa6, 0xf2, 0x47, 0x1b, 0x1f, 0xa2, 0xd7, 0xf4, 0x4a, 0x08, 0x68, 0x08, 0xe5, 0xf6, 0x6b, 0xcb, 0xa2, 0xca, 0x23, 0x11, 0xe3, 0xb5, 0xef, 0xb9, 0xa0, 0x0d, 0x1c, 0xc7, 0xe8, 0x81, 0xb4, 0xf4, 0x0c, 0x13, 0xd8, 0xf6, 0x39, 0xc5, 0x31, 0xdb, 0xc2, 0xe7, 0x81, 0xea, 0xda, 0xc3, 0x39, 0xef, 0x06, 0x09, 0x23, 0x13, 0xe2, 0x42, 0x4b, 0xdc, 0xd8, 0x08, 0xed, 0xdd, 0xb6, 0xcc, 0x15, 0xf3, 0x17, 0xb9, 0xc3, 0xc3, 0x00, 0xde, 0x33, 0x16, 0x15, 0xc6, 0xf8, 0x24, 0x17, 0x35, 0x1f, 0x81, 0x32, 0xdf, 0x17, 0x0d, 0xcb, 0xe8, 0xe0, 0x2f, 0xfa, 0x2c, 0xd8, 0xe1, 0x13, 0x03, 0x2c, 0x19, 0xeb, 0x07, 0xf8, 0x20, 0xd8, 0xe5, 0x25, 0xed, 0x1b, 0x1d, 0xf8, 0xf0, 0x01, 0x28, 0xf3, 0x0d, 0xd9, 0x0a, 0x0a, 0xfd, 0x36, 0x81, 0xfe, 0xd6, 0xeb, 0x1c, 0xe0, 0xfc, 0x10, 0xe8, 0xe8, 0x06, 0xca, 0xdd, 0xf0, 0x23, 0x20, 0xca, 0xec, 0xfd, 0xce, 0xde, 0x60, 0x81, 0xf6, 0x22, 0xe2, 0xeb, 0xdf, 0xfa, 0xfe, 0x2b, 0xfa, 0xcb, 0xf8, 0xcd, 0x24, 0x32, 0x4a, 0x05, 0xe6, 0x12, 0x1e, 0xd7, 0xe5, 0xa7, 0xdf, 0xae, 0x8c, 0x15, 0x07, 0x34, 0x00, 0x00, 0x9a, 0x91, 0x7f, 0x2e, 0xd9, 0xf6, 0xe6, 0xb0, 0xe6, 0xd5, 0x17, 0x24, 0x47, 0xd3, 0x06, 0x10, 0x99, 0x19, 0x41, 0x56, 0x0a, 0x31, 0x09, 0x81, 0x2d, 0x09, 0x28, 0xd8, 0xf2, 0x3b, 0xe0, 0xe5, 0xf8, 0xcc, 0x23, 0x03, 0x35, 0xa2, 0xe4, 0xbe, 0xf1, 0x36, 0xe8, 0x01, 0x37, 0xdc, 0x45, 0xc7, 0x17, 0xd8, 0xd4, 0xa4, 0xf2, 0xe7, 0xcf, 0x19, 0xf4, 0x31, 0xc6, 0xbd, 0xfc, 0x0e, 0x74, 0xd9, 0xd9, 0xc5, 0xd9, 0x36, 0xe9, 0xfe, 0x12, 0xdd, 0x9f, 0x18, 0x19, 0xf6, 0x0e, 0x1f, 0xce, 0x7f, 0xce, 0xd7, 0x16, 0xff, 0xaf, 0x5d, 0x9e, 0x69, 0x05, 0x86, 0xb0, 0x2a, 0x35, 0xff, 0x1a, 0xe7, 0x34, 0xe0, 0xde, 0x7f, 0x1a, 0xf1, 0xf7, 0xcc, 0x04, 0xc1, 0xea, 0xf1, 0x1e, 0xba, 0xfa, 0xd5, 0xd4, 0x55, 0x07, 0xe9, 0xe0, 0xcf, 0xee, 0x11, 0x03, 0x12, 0x25, 0xea, 0xe9, 0x81, 0x25, 0xfe, 0x13, 0x0a, 0xb5, 0xc2, 0x0c, 0xd6, 0x1c, 0xfe, 0xe0, 0xfe, 0xe1, 0x16, 0xf0, 0x27, 0xd9, 0xeb, 0xd3, 0xd3, 0xcb, 0xfb, 0x10, 0xec, 0xc7, 0xf5, 0xdb, 0x05, 0xb9, 0xbf, 0x24, 0x7f, 0x15, 0xd5, 0xc4, 0x00, 0xd8, 0x42, 0xfa, 0x16, 0xc8, 0x2b, 0xb2, 0xf2, 0x09, 0x0c, 0x1f, 0x2b, 0x2d, 0x29, 0x00, 0x02, 0x41, 0xee, 0x94, 0xe0, 0xf6, 0x2a, 0x3b, 0xaa, 0xf6, 0x47, 0xfa, 0xd2, 0xf5, 0x42, 0x07, 0xf0, 0x81, 0x5b, 0x05, 0x18, 0x54, 0xdd, 0x3e, 0xbe, 0xbe, 0x9e, 0x19, 0x0c, 0xc8, 0x0a, 0x26, 0x00, 0xf2, 0x11, 0x04, 0xea, 0xf0, 0x03, 0xca, 0xa2, 0xf1, 0x7f, 0x5b, 0x44, 0xde, 0xea, 0x90, 0xef, 0x0b, 0x55, 0x33, 0xdd, 0x54, 0x39, 0x14, 0x07, 0xd5, 0xec, 0x16, 0xe2, 0x31, 0xd3, 0x35, 0x6f, 0x07, 0x29, 0x99, 0xc6, 0xd5, 0xf0, 0x31, 0x81, 0xd1, 0x3f, 0xb3, 0xee, 0xb3, 0x38, 0x9a, 0xec, 0xed, 0xb1, 0xac, 0x0a, 0xef, 0xf7, 0x05, 0xeb, 0xe1, 0x11, 0x26, 0xd3, 0x16, 0x3b, 0x7b, 0x21, 0x92, 0xaf, 0x17, 0x52, 0x81, 0x00, 0xc5, 0xe9, 0xd1, 0xac, 0xed, 0x1c, 0xdb, 0xfc, 0x19, 0xfd, 0xcd, 0x45, 0xf4, 0x0b, 0x98, 0xa0, 0x97, 0x27, 0xcf, 0x02, 0xe8, 0xae, 0x59, 0xe7, 0x5c, 0x5b, 0xf5, 0xec, 0xea, 0xd3, 0x81, 0x07, 0x06, 0xad, 0xe7, 0x2e, 0xcc, 0x20, 0xe8, 0xe8, 0xb3, 0xc1, 0x29, 0x09, 0xde, 0xf8, 0xc3, 0xe6, 0x1f, 0xe3, 0x26, 0xea, 0x12, 0x9c, 0x23, 0x25, 0x49, 0x59, 0xd2, 0x16, 0x0d, 0xd3, 0x0b, 0x25, 0x8b, 0x92, 0x1a, 0x3f, 0x77, 0x05, 0xd7, 0x3b, 0x0a, 0xf5, 0x29, 0xf5, 0xb2, 0x0a, 0x7f, 0x0a, 0xe0, 0xef, 0x0e, 0x0d, 0xae, 0x08, 0xdf, 0xf3, 0x5a, 0x0c, 0xb7, 0x78, 0x19, 0xfc, 0x09, 0x0c, 0xdc, 0x25, 0xe3, 0x62, 0x7f, 0xe5, 0x20, 0x9f, 0xcf, 0x08, 0x00, 0xf8, 0x4f, 0xca, 0xf6, 0x3d, 0x09, 0xdf, 0xc9, 0x4c, 0x4c, 0x6e, 0xe0, 0x0b, 0x90, 0xce, 0x3e, 0x09, 0xbf, 0x02, 0xe5, 0xdf, 0xbd, 0xa8, 0xa3, 0x01, 0x3d, 0xca, 0xca, 0xec, 0xc9, 0x1d, 0xe7, 0x34, 0x00, 0xf5, 0xa5, 0x1a, 0x99, 0x81, 0x14, 0x2f, 0xb0, 0xd4, 0xcd, 0xea, 0xda, 0x32, 0x51, 0x03, 0x3a, 0xfb, 0xf7, 0x09, 0xa3, 0xbe, 0x21, 0x30, 0x76, 0x65, 0xd0, 0xe4, 0xfe, 0xd9, 0x15, 0xfd, 0x3f, 0xf3, 0x7f, 0x51, 0xdb, 0x05, 0xf9, 0xcc, 0x3c, 0xe4, 0x1c, 0xdb, 0x39, 0x28, 0xea, 0x38, 0x20, 0x24, 0xf7, 0xc0, 0xfd, 0xea, 0x05, 0xff, 0x0d, 0xfd, 0xff, 0xdf, 0x0a, 0x2a, 0x09, 0x01, 0x2f, 0x81, 0xd9, 0xdc, 0x09, 0x06, 0xa9, 0x1f, 0x47, 0x18, 0xf0, 0x00, 0xe8, 0xcb, 0xfb, 0xdd, 0xf0, 0xd1, 0x81, 0x06, 0x0b, 0x92, 0xc6, 0xa1, 0xb8, 0xde, 0x2b, 0xa2, 0xce, 0xe3, 0x16, 0x47, 0x20, 0xca, 0xf1, 0xeb, 0x05, 0xab, 0x0e, 0x3d, 0x6a, 0x05, 0xfc, 0xf7, 0xe6, 0xeb, 0x17, 0xf8, 0xd0, 0xe5, 0x32, 0xd5, 0xa0, 0xb9, 0x25, 0xb2, 0x57, 0x42, 0x35, 0x92, 0x11, 0x4e, 0x3c, 0x0e, 0x0e, 0x81, 0x3d, 0xe1, 0x15, 0xd8, 0x9c, 0xf0, 0xcc, 0x47, 0x44, 0x37, 0xd7, 0xdd, 0x22, 0x0a, 0x19, 0xe5, 0xb0, 0xff, 0x25, 0x28, 0x54, 0xcf, 0x31, 0xe1, 0x81, 0xdf, 0x2f, 0xd2, 0x02, 0xaa, 0xbe, 0xe0, 0xfc, 0x03, 0x95, 0x14, 0xf7, 0x09, 0xd2, 0xb8, 0xf8, 0x04, 0xf1, 0xa1, 0x9f, 0xf0, 0x03, 0xbf, 0xc8, 0xfd, 0x0b, 0xe9, 0x2a, 0xc6, 0xc6, 0xf9, 0x0a, 0x1e, 0x96, 0xdc, 0x15, 0x0d, 0xcb, 0x0f, 0xc3, 0x81, 0xf3, 0x18, 0x3c, 0xba, 0x27, 0xa8, 0x03, 0x1b, 0x2a, 0x31, 0xdb, 0xd6, 0xe8, 0xf0, 0x13, 0x0d, 0x43, 0xd2, 0x07, 0x17, 0x12, 0x0d, 0xf2, 0xf5, 0xf4, 0x3f, 0x81, 0xdd, 0xdb, 0xf6, 0x07, 0x0e, 0xde, 0xfe, 0xe3, 0xc9, 0xe5, 0x00, 0x0f, 0xc4, 0x0c, 0xe2, 0xb2, 0xc6, 0x0b, 0xf6, 0x13, 0x2a, 0x03, 0x11, 0x45, 0x49, 0x76, 0xe7, 0x47, 0xd9, 0xf0, 0xfa, 0x09, 0xbf, 0xea, 0xf8, 0x5f, 0x26, 0x81, 0xd2, 0x00, 0xf5, 0x0b, 0x3d, 0x05, 0xec, 0x01, 0xdf, 0xe3, 0xca, 0x34, 0xea, 0x40, 0x07, 0xe7, 0x0b, 0x38, 0x05, 0x71, 0xb3, 0x58, 0x1b, 0x26, 0xfe, 0xf7, 0xa0, 0xd4, 0xd3, 0x19, 0x0f, 0x81, 0xdd, 0xec, 0x43, 0xca, 0xce, 0x08, 0x09, 0xd3, 0xa6, 0xf2, 0xf5, 0x25, 0x91, 0x5a, 0xe3, 0x22, 0x9b, 0x28, 0xef, 0xff, 0x4f, 0xfd, 0x0c, 0x0b, 0xd5, 0xf5, 0x0b, 0x44, 0xcd, 0x2d, 0xa2, 0x7f, 0x2d, 0xbe, 0xf9, 0xbd, 0x00, 0xde, 0x42, 0x1f, 0xcf, 0xbc, 0x02, 0xdd, 0x1a, 0xfd, 0x29, 0xf2, 0x01, 0xfd, 0x04, 0x21, 0xdc, 0x0c, 0x31, 0xd5, 0x17, 0xfc, 0x12, 0xfe, 0xe0, 0xe1, 0x07, 0x03, 0x00, 0x25, 0x81, 0xf2, 0xe4, 0xea, 0xeb, 0xea, 0xd9, 0x08, 0xe8, 0x1f, 0xfc, 0x14, 0x3a, 0x03, 0xf2, 0x36, 0x25, 0x7f, 0xfb, 0x1b, 0x26, 0x0e, 0x07, 0x1d, 0xb0, 0x1c, 0xdd, 0xe9, 0xdd, 0xc7, 0xcf, 0xd7, 0x0d, 0xb7, 0xf0, 0x9e, 0xb2, 0x1e, 0xe2, 0xdd, 0xf3, 0x33, 0x16, 0xca, 0xbd, 0xb2, 0x0d, 0xed, 0x07, 0x2a, 0x19, 0xfd, 0x81, 0x99, 0x05, 0xf8, 0x1e, 0xe5, 0xef, 0xd7, 0xc5, 0xf3, 0x4b, 0x06, 0xd8, 0xdd, 0x12, 0x19, 0xeb, 0xc4, 0xdc, 0x00, 0xcb, 0x03, 0x42, 0xbb, 0x0e, 0xba, 0xa4, 0xb3, 0x97, 0x3c, 0x36, 0xd3, 0x48, 0x81, 0x19, 0xf6, 0x2d, 0xec, 0x27, 0xac, 0x32, 0x07, 0xb2, 0x1b, 0xc5, 0x0a, 0x8b, 0x1c, 0x47, 0x03, 0x67, 0x26, 0xe6, 0xf2, 0xf7, 0xab, 0xe1, 0xe3, 0xfa, 0xe7, 0x85, 0xfb, 0x1b, 0x76, 0xa2, 0x8c, 0xbd, 0xe3, 0x79, 0x31, 0xd3, 0x0e, 0xd6, 0xbc, 0x23, 0x03, 0xd0, 0x29, 0x4a, 0xcb, 0x4d, 0xb6, 0xcd, 0x5d, 0xe1, 0x81, 0xec, 0x18, 0x1c, 0x42, 0x21, 0xf8, 0xed, 0xd3, 0xa7, 0x4a, 0xd4, 0x90, 0x1b, 0xbb, 0x2b, 0x50, 0x81, 0x40, 0xf3, 0xe4, 0x0b, 0x10, 0xb3, 0x11, 0x0a, 0x81, 0x24, 0xd5, 0xb1, 0x2e, 0xc2, 0xc9, 0xd8, 0xea, 0xfb, 0x0b, 0xf1, 0xf2, 0xb4, 0xda, 0x25, 0x2c, 0xb1, 0x81, 0xb0, 0x1d, 0x36, 0xeb, 0xf8, 0x09, 0xcc, 0xa7, 0xd6, 0x30, 0x0a, 0x39, 0x0b, 0x2e, 0x2e, 0xbd, 0xf5, 0xfe, 0x28, 0xb0, 0x3a, 0xd1, 0xfc, 0xcb, 0xbc, 0xda, 0x39, 0xfa, 0xed, 0xe3, 0xd2, 0x81, 0xfb, 0x02, 0x40, 0x0c, 0xdf, 0xc7, 0x12, 0x13, 0xb5, 0xce, 0x4b, 0xe4, 0x3f, 0x40, 0xfe, 0xe8, 0xe6, 0x00, 0x44, 0xf3, };
const int32_t bias4[64] = {-19325, 1540, -15604, 4890, -25403, -12886, -2752, 995, 7963, -7443, -1016, 8437, 5858, -6566, 15759, 1211, -20294, -16545, -9985, -17517, 1711, -19081, 80, -8325, 570, -13477, -12153, 4778, -8591, -3781, -7979, -5741, -10045, -2515, -17219, -3600, 10157, -18100, -9747, -14766, 3260, 3010, -1678, 2502, -23719, 9176, -16020, -6735, -3643, -3705, 10277, -2585, 11337, -7269, 5270, -3809, 872, 12747, 2422, -13904, -13131, -5209, -9785, 1458, };
const int32_t shift4[64] = {-6, -6, -6, -6, -6, -6, -6, -6, -6, -6, -6, -6, -6, -7, -6, -6, -6, -6, -6, -7, -6, -6, -5, -5, -6, -7, -6, -6, -6, -6, -5, -5, -7, -6, -5, -6, -5, -5, -5, -6, -6, -6, -6, -6, -6, -6, -6, -6, -6, -6, -6, -6, -6, -6, -6, -6, -5, -6, -6, -6, -6, -6, -6, -6, };
const int32_t multiplier4[64] = {1581231922, 1611635682, 1713824098, 1985156183, 1169509861, 1649358570, 1611327429, 1596603705, 1873029894, 1254081844, 1471830439, 1713013988, 1882886149, 1945371509, 1077254579, 1698897142, 1904282573, 1328743876, 1710660983, 1611599539, 1316266060, 1720140402, 1125779589, 1122521747, 1875169744, 1811080904, 2137500270, 1433838700, 2100854270, 1451402621, 1530000253, 1638453868, 2123194117, 1534552951, 1165034040, 1587736052, 1195870555, 1133014358, 1086602682, 1223938122, 1116091162, 1671442897, 1467683166, 1380234324, 1735784146, 1397634713, 1434089925, 2133698726, 1961395941, 1212790047, 1719793339, 1892223810, 1762471535, 2046685824, 1806440366, 1236850765, 1399446164, 1997269753, 1953698792, 1427643268, 1359090903, 1659611806, 2096872455, 1566933324, };
const unsigned char weight5[2304] = {0xe0, 0xe7, 0xdc, 0xf0, 0xff, 0x05, 0xde, 0x04, 0xf7, 0x06, 0x05, 0x02, 0xe4, 0xf6, 0xfb, 0xee, 0xee, 0x01, 0xff, 0x02, 0xf9, 0xee, 0xeb, 0x04, 0x02, 0x04, 0xe6, 0xf9, 0xfd, 0x03, 0xe0, 0xf1, 0x02, 0xf4, 0xe7, 0xf7, 0xec, 0x00, 0xf6, 0x05, 0x04, 0xea, 0x01, 0xf1, 0xfe, 0x04, 0x03, 0xff, 0xee, 0x04, 0xdc, 0xe9, 0xf6, 0xe0, 0xe5, 0x04, 0xdb, 0xe9, 0xe2, 0x02, 0xf1, 0xea, 0xf1, 0x00, 0xf3, 0xcc, 0xe9, 0xd2, 0xea, 0xdb, 0xf6, 0xaf, 0x00, 0xed, 0xe3, 0xd6, 0x01, 0xff, 0x04, 0xc7, 0xd4, 0xdf, 0xf2, 0xcc, 0xf3, 0xfe, 0xd7, 0xdc, 0xde, 0xcc, 0xc5, 0xe1, 0xfe, 0xbf, 0x08, 0xfc, 0xb9, 0x02, 0xf4, 0xdb, 0xee, 0xd5, 0xef, 0xe4, 0xff, 0xe6, 0xf0, 0xf3, 0xe2, 0xd3, 0xfb, 0xb4, 0xcd, 0xcc, 0xf9, 0xf7, 0x06, 0xfd, 0xf2, 0xd3, 0xf8, 0x02, 0xfe, 0x01, 0xd1, 0xf5, 0xd6, 0xbf, 0x07, 0xf8, 0x03, 0xe6, 0x05, 0xff, 0x07, 0xff, 0xdb, 0xfb, 0xdf, 0xf1, 0x08, 0x01, 0xfe, 0xf5, 0x05, 0x06, 0x07, 0x01, 0xfc, 0x06, 0x05, 0x01, 0xe6, 0x02, 0xe8, 0xe2, 0x04, 0xf4, 0xff, 0xe9, 0x00, 0xe1, 0xff, 0x03, 0x05, 0xfa, 0x09, 0x04, 0xfd, 0xf8, 0x01, 0x02, 0x04, 0xf0, 0x05, 0xda, 0xf2, 0xf0, 0x05, 0xf7, 0xe2, 0x06, 0x01, 0xe3, 0x02, 0xe1, 0x07, 0xf5, 0xf6, 0x05, 0xf5, 0x01, 0x08, 0x02, 0x09, 0xfa, 0x07, 0xeb, 0x04, 0xec, 0xe5, 0x06, 0xdf, 0x03, 0x05, 0xe9, 0xd5, 0xda, 0xff, 0x07, 0x00, 0x00, 0xe1, 0x06, 0xf4, 0x03, 0xfe, 0x03, 0xfe, 0x05, 0xf2, 0xd4, 0x06, 0xfb, 0x01, 0xcc, 0x08, 0x06, 0x02, 0x05, 0x09, 0x01, 0xed, 0xec, 0xfb, 0xeb, 0xf4, 0x03, 0xfa, 0xde, 0x05, 0xde, 0xe2, 0x02, 0xd5, 0xee, 0xe4, 0xd8, 0x06, 0xdc, 0xf9, 0x07, 0x06, 0x07, 0x06, 0xf1, 0xf5, 0x03, 0x03, 0xee, 0xe1, 0xf2, 0x07, 0x01, 0x03, 0xd6, 0xe0, 0xde, 0xf1, 0x04, 0x04, 0xf5, 0x07, 0xe9, 0x06, 0xef, 0x04, 0xe9, 0x04, 0xe2, 0xe5, 0xdd, 0x08, 0xff, 0xfa, 0xfe, 0xf9, 0x01, 0x07, 0x06, 0xed, 0x04, 0xff, 0xd5, 0xf0, 0xf0, 0x04, 0x04, 0x06, 0xf8, 0xec, 0xcc, 0xee, 0x02, 0x06, 0xfe, 0x05, 0x07, 0x04, 0xfb, 0xee, 0xd4, 0xff, 0x04, 0x01, 0xd7, 0xec, 0x01, 0x03, 0x00, 0x05, 0x05, 0x07, 0x02, 0xe5, 0xed, 0xde, 0x00, 0x05, 0x03, 0x02, 0x05, 0xf2, 0xe4, 0xf0, 0xfe, 0xfd, 0xda, 0xe7, 0xff, 0xeb, 0x03, 0xe9, 0xce, 0xfe, 0x03, 0x02, 0xfc, 0xe3, 0xff, 0x05, 0x06, 0x00, 0xe6, 0x07, 0x04, 0x00, 0x06, 0xe3, 0xfc, 0xea, 0x00, 0xec, 0x06, 0xef, 0x04, 0xf4, 0xee, 0x06, 0xfc, 0x03, 0xe0, 0xe3, 0xf7, 0x05, 0x04, 0x03, 0x02, 0xec, 0x07, 0x06, 0x04, 0x06, 0xf8, 0x08, 0x09, 0xd3, 0xf7, 0xd8, 0xee, 0xe3, 0x06, 0x06, 0xfb, 0xf5, 0x01, 0xdb, 0x01, 0x02, 0x07, 0xec, 0xdc, 0xce, 0x01, 0x05, 0x07, 0xed, 0xea, 0x02, 0x01, 0xe6, 0xe3, 0xfb, 0x06, 0xe2, 0xef, 0xfe, 0xff, 0x07, 0xd3, 0xe8, 0x06, 0xe6, 0x04, 0xcb, 0xeb, 0xc5, 0xfd, 0x06, 0x01, 0x03, 0x06, 0xf5, 0x06, 0xec, 0xb6, 0x04, 0x07, 0x00, 0xfa, 0xeb, 0x04, 0x04, 0x01, 0x06, 0xf2, 0x04, 0x05, 0x02, 0xef, 0x08, 0xfe, 0x07, 0x00, 0x04, 0xc3, 0xd9, 0xcd, 0xf9, 0xc4, 0x08, 0xcb, 0xfd, 0xe9, 0xd5, 0x06, 0x03, 0xff, 0xc7, 0xfb, 0xf5, 0x03, 0xe6, 0x02, 0xf5, 0x03, 0xdb, 0xc2, 0x02, 0x07, 0xed, 0xe7, 0xe2, 0x03, 0x00, 0xbc, 0x08, 0xc1, 0x06, 0xf0, 0x05, 0xf0, 0xc6, 0xdd, 0xe5, 0xf0, 0xed, 0xbb, 0xfc, 0x05, 0x03, 0xe8, 0xd9, 0xf6, 0x06, 0xd9, 0xfc, 0xd7, 0xe7, 0x04, 0xde, 0xc9, 0xe6, 0xf7, 0xf5, 0x05, 0x01, 0xe9, 0x08, 0x03, 0xfc, 0xf7, 0xf1, 0x02, 0xeb, 0xf0, 0xea, 0x06, 0xf9, 0x04, 0x08, 0x04, 0xef, 0x06, 0x06, 0x01, 0xfe, 0x02, 0x04, 0xfb, 0xe9, 0x01, 0xf3, 0x08, 0x05, 0x05, 0x03, 0xf3, 0xe9, 0x05, 0xeb, 0x02, 0xf3, 0x08, 0x03, 0x00, 0x04, 0x02, 0x01, 0xf2, 0x01, 0x02, 0xf3, 0x04, 0xd5, 0xf7, 0xfc, 0xfe, 0xe2, 0xf7, 0x05, 0xfe, 0x05, 0xe7, 0x04, 0x01, 0xf1, 0x09, 0x06, 0xdc, 0x04, 0xf6, 0xff, 0x05, 0xf6, 0xf1, 0xe7, 0xec, 0xf6, 0xdd, 0xdd, 0xe6, 0xee, 0x09, 0x05, 0x05, 0xdf, 0x04, 0xea, 0x04, 0xef, 0x01, 0x05, 0xed, 0xf1, 0x04, 0xff, 0x02, 0x03, 0xdd, 0xee, 0x06, 0xf3, 0xea, 0xd8, 0xe5, 0x06, 0x05, 0x07, 0x00, 0xd9, 0xed, 0xdb, 0xed, 0x08, 0x04, 0xfd, 0x07, 0x00, 0xe6, 0xfa, 0x01, 0xea, 0xef, 0xcd, 0xf6, 0xfb, 0xe9, 0x03, 0x03, 0xec, 0xed, 0xea, 0xff, 0xf6, 0x05, 0x05, 0xf5, 0xe4, 0xbd, 0x03, 0xe5, 0x03, 0x00, 0xf6, 0x03, 0x05, 0xfa, 0x05, 0x00, 0x03, 0xfa, 0xff, 0x05, 0x05, 0xfa, 0xd8, 0x04, 0x05, 0x03, 0xf4, 0xe0, 0x09, 0x03, 0xe4, 0xd9, 0x04, 0xd3, 0xfb, 0xc4, 0x03, 0xe6, 0x04, 0xf0, 0x02, 0xde, 0xdc, 0x03, 0x06, 0x00, 0x04, 0x03, 0x02, 0xf7, 0xf4, 0xff, 0xde, 0xf8, 0xfe, 0xd6, 0xff, 0x04, 0x06, 0xdc, 0xfd, 0xfd, 0xf7, 0x08, 0x03, 0x00, 0x04, 0x00, 0xd5, 0xff, 0x04, 0x03, 0xfa, 0x01, 0xe0, 0x06, 0xf9, 0x06, 0x02, 0x04, 0x05, 0x03, 0x02, 0x04, 0x06, 0x03, 0xea, 0x05, 0x01, 0x03, 0x00, 0xf5, 0x05, 0x03, 0x04, 0xf1, 0xf4, 0x05, 0x00, 0x01, 0xe6, 0xeb, 0xf3, 0xe3, 0x05, 0x04, 0x00, 0x05, 0x04, 0x02, 0xd9, 0xfc, 0xde, 0xe6, 0xd7, 0x02, 0xfe, 0xd6, 0x03, 0x00, 0x05, 0x03, 0x05, 0xf3, 0x05, 0xe1, 0x01, 0xdb, 0xff, 0xfb, 0xe5, 0x03, 0x05, 0x08, 0x01, 0xea, 0xd1, 0x02, 0xe7, 0xd4, 0xe7, 0x05, 0xb3, 0xff, 0xfb, 0xfc, 0xac, 0x05, 0x05, 0xf5, 0xe9, 0xfc, 0x03, 0x02, 0xc8, 0xf4, 0xd3, 0xdc, 0x03, 0xf8, 0x00, 0xf5, 0xef, 0x06, 0xf2, 0xf2, 0xc6, 0x06, 0xfe, 0xec, 0x05, 0xf9, 0xc0, 0x04, 0x03, 0xc1, 0xfa, 0x08, 0x06, 0x01, 0xd6, 0x06, 0xd1, 0xfa, 0xee, 0xeb, 0xe6, 0xfb, 0xec, 0xe4, 0xe8, 0x06, 0x02, 0x05, 0xcf, 0xf9, 0xdb, 0x02, 0x06, 0x04, 0xfd, 0x03, 0x02, 0xf5, 0xf8, 0x01, 0xfc, 0x02, 0x05, 0xf2, 0xf3, 0x00, 0xf6, 0x05, 0xe8, 0x02, 0x02, 0xfe, 0x04, 0xfb, 0x05, 0x02, 0xda, 0xfa, 0xee, 0xfe, 0x03, 0x03, 0x02, 0xf5, 0x00, 0xe6, 0x02, 0x06, 0x02, 0xfa, 0xed, 0xfb, 0xd6, 0xf8, 0xfd, 0xdc, 0xd4, 0x07, 0x06, 0xd5, 0x01, 0x00, 0xf2, 0xfd, 0xe6, 0xf8, 0xf7, 0xf1, 0x08, 0x08, 0xf0, 0xe6, 0x09, 0x07, 0x03, 0x05, 0x02, 0xe7, 0xd7, 0x02, 0xde, 0x07, 0xe3, 0xf1, 0xed, 0xfb, 0x02, 0xfa, 0x01, 0xe5, 0x05, 0xe4, 0xfd, 0x00, 0x01, 0x07, 0xf9, 0x03, 0xe6, 0xf4, 0x06, 0xf0, 0xfa, 0xf5, 0xe6, 0x07, 0xa9, 0xef, 0xe8, 0x06, 0x03, 0xe3, 0x07, 0xfa, 0xf0, 0x05, 0x06, 0xf6, 0xc7, 0x07, 0x05, 0x06, 0xf8, 0x02, 0x03, 0xe9, 0x06, 0xfb, 0x07, 0x00, 0xf2, 0xd7, 0x04, 0x06, 0xfa, 0xea, 0x07, 0xfc, 0x06, 0xd8, 0x02, 0xee, 0xf8, 0xe0, 0xea, 0x05, 0xe8, 0x00, 0xf6, 0x01, 0xff, 0xfc, 0x02, 0xfe, 0x04, 0xee, 0xe7, 0x02, 0xee, 0x04, 0x05, 0x01, 0xe7, 0xfb, 0x01, 0xe8, 0xfd, 0xf2, 0xeb, 0xc9, 0xf9, 0xf9, 0xf8, 0x04, 0xd7, 0xee, 0xdc, 0xf6, 0xf1, 0x04, 0x06, 0x07, 0x00, 0x00, 0x04, 0x05, 0xfa, 0x05, 0x03, 0xf2, 0x02, 0x03, 0xfe, 0xca, 0x09, 0x0a, 0xff, 0xf8, 0xfb, 0xfd, 0x03, 0x08, 0x06, 0xff, 0x02, 0xff, 0xdc, 0xfb, 0xef, 0x05, 0xf4, 0xfd, 0xf0, 0xfe, 0x04, 0x01, 0xe8, 0x04, 0x07, 0xfa, 0xed, 0xf7, 0xfa, 0x07, 0xef, 0xee, 0xf5, 0xf0, 0x06, 0xf9, 0xfc, 0x04, 0xf9, 0x03, 0xf4, 0xe7, 0xf3, 0x03, 0x07, 0xfd, 0xfd, 0x08, 0x02, 0x07, 0x03, 0x03, 0xf7, 0x07, 0x06, 0x02, 0xe0, 0x06, 0xfb, 0x05, 0x05, 0xfe, 0x00, 0x05, 0xee, 0xeb, 0xe5, 0x03, 0xcd, 0x02, 0x03, 0xe3, 0x03, 0xc1, 0x02, 0xeb, 0x00, 0x04, 0x04, 0x04, 0x08, 0xa3, 0x06, 0xc0, 0x05, 0xdb, 0x02, 0x02, 0x03, 0xe1, 0x06, 0x04, 0x03, 0x01, 0xee, 0xe3, 0x06, 0x06, 0xe1, 0xfe, 0x03, 0xd0, 0xf9, 0xd9, 0x05, 0xf7, 0x05, 0xe0, 0x05, 0xe1, 0xd9, 0x06, 0x04, 0xf4, 0x03, 0x05, 0x04, 0xf4, 0xef, 0xfd, 0xfd, 0x06, 0x02, 0xcb, 0xff, 0x05, 0x04, 0xfb, 0xe9, 0xb8, 0xf6, 0xff, 0x02, 0xdf, 0xf6, 0xaf, 0x00, 0xf6, 0xfd, 0xdc, 0x02, 0x03, 0x02, 0xd9, 0xe8, 0xe6, 0xeb, 0xc3, 0xfb, 0xfe, 0xe3, 0xd0, 0xd2, 0xb1, 0xc8, 0x01, 0xfd, 0xd2, 0x05, 0x00, 0xb6, 0x02, 0xf6, 0xe0, 0xf2, 0xe2, 0x03, 0xfc, 0xfa, 0xde, 0xf1, 0x02, 0xe3, 0xd7, 0x03, 0xd5, 0xc3, 0xcd, 0x00, 0xfe, 0x06, 0x04, 0xfd, 0xfc, 0xfe, 0x02, 0x00, 0x03, 0xdc, 0xeb, 0xd9, 0xbf, 0x03, 0xd4, 0xfc, 0x02, 0xff, 0xf3, 0xd8, 0xec, 0x03, 0x03, 0x02, 0x05, 0x05, 0xfb, 0x05, 0xd5, 0x05, 0xdf, 0xf6, 0xcb, 0xf5, 0x01, 0xf1, 0xd4, 0xd4, 0xe9, 0xf5, 0x04, 0xe2, 0xc0, 0x05, 0x05, 0xfe, 0x02, 0xf5, 0x03, 0xef, 0x06, 0x04, 0x01, 0x00, 0xfa, 0xfb, 0x02, 0xf7, 0x04, 0xf8, 0xe3, 0xf9, 0xce, 0x00, 0x00, 0x04, 0xe5, 0xff, 0xff, 0x06, 0x02, 0xd4, 0x07, 0xf4, 0x00, 0xf1, 0x03, 0xef, 0xee, 0xef, 0x06, 0xb6, 0x06, 0x00, 0xef, 0x03, 0xfa, 0x04, 0xe0, 0x03, 0x03, 0x04, 0x09, 0xf9, 0xae, 0xf5, 0xb2, 0x04, 0xe7, 0x07, 0x04, 0x04, 0xed, 0x05, 0x04, 0x05, 0x02, 0xe4, 0xf8, 0xd0, 0x08, 0x06, 0x02, 0x04, 0x08, 0xea, 0xee, 0xfb, 0x04, 0xe6, 0xfd, 0xff, 0xda, 0xfd, 0x07, 0xf9, 0xf2, 0x01, 0xf3, 0x00, 0x04, 0x00, 0x00, 0x04, 0x05, 0x08, 0xcc, 0x07, 0x07, 0xfa, 0xfb, 0x04, 0xe3, 0xcf, 0xf8, 0xae, 0xfa, 0xf1, 0xfb, 0x00, 0x06, 0xda, 0xe4, 0xf2, 0x05, 0x06, 0xfd, 0xeb, 0xaf, 0xe7, 0xba, 0x04, 0x02, 0xef, 0xdb, 0xe3, 0xc4, 0xd2, 0xe4, 0x06, 0xfd, 0xfe, 0xdf, 0xc2, 0x02, 0x05, 0xd9, 0x02, 0xf5, 0xea, 0x04, 0xdf, 0xdd, 0xd0, 0x02, 0x03, 0xe1, 0x06, 0xec, 0xdd, 0xf4, 0x05, 0xe8, 0x05, 0x08, 0x06, 0xd0, 0x01, 0x02, 0x07, 0xe9, 0xf7, 0x04, 0xe8, 0xf7, 0x04, 0x09, 0x02, 0x00, 0xe9, 0x07, 0xca, 0xd1, 0xf6, 0xa5, 0x07, 0xed, 0x02, 0x03, 0xfe, 0xfc, 0x05, 0xeb, 0xef, 0x03, 0x02, 0xcf, 0xe6, 0x05, 0x06, 0x07, 0x07, 0x08, 0x07, 0xe5, 0xdb, 0xed, 0xe5, 0x06, 0xee, 0xfb, 0x09, 0xb2, 0x04, 0xbd, 0x06, 0xf6, 0xfd, 0xcf, 0x05, 0xe5, 0xc4, 0x08, 0x09, 0xdb, 0xfe, 0xf7, 0x01, 0xf1, 0x00, 0xfe, 0xf2, 0x04, 0xec, 0xbf, 0xe0, 0x08, 0xe7, 0x04, 0xfb, 0xe8, 0xf1, 0xf1, 0xe9, 0x06, 0xd6, 0xca, 0xff, 0xf9, 0x04, 0x06, 0x06, 0x05, 0x05, 0xf1, 0x07, 0xdd, 0xef, 0xee, 0x02, 0xdf, 0x02, 0x06, 0x03, 0xe8, 0x09, 0x04, 0x08, 0xde, 0xe3, 0xdb, 0xf6, 0x06, 0xd7, 0x05, 0x06, 0xf9, 0x06, 0xf1, 0xf8, 0x06, 0xef, 0xe7, 0x04, 0x04, 0xf5, 0x06, 0xea, 0xdf, 0xea, 0xea, 0x02, 0xfb, 0xe6, 0xfe, 0xe6, 0x02, 0xf5, 0xf9, 0xcf, 0x06, 0xd9, 0x02, 0xdc, 0xe6, 0xde, 0xed, 0xfe, 0x05, 0xdc, 0x04, 0xf0, 0x05, 0x05, 0x03, 0xda, 0xfa, 0xf5, 0xf0, 0xf1, 0x00, 0xfc, 0x03, 0xf4, 0xf3, 0xe9, 0x02, 0x02, 0x05, 0xe3, 0xf8, 0xfd, 0x04, 0xd6, 0xe9, 0x03, 0xee, 0xe1, 0xf5, 0xe8, 0xfe, 0x02, 0x05, 0x04, 0xea, 0xff, 0xff, 0xfb, 0x04, 0x04, 0xfb, 0xed, 0x05, 0xd9, 0xe9, 0xee, 0xf5, 0xe0, 0x06, 0xd4, 0xe4, 0xde, 0x01, 0xf1, 0xe5, 0xf3, 0xfe, 0xeb, 0xe8, 0xff, 0x06, 0x04, 0xf9, 0xf6, 0xfa, 0xe1, 0xc8, 0x04, 0x06, 0x01, 0xe6, 0xf3, 0x05, 0xe3, 0x07, 0xe9, 0x05, 0x01, 0x04, 0x04, 0x04, 0x05, 0x04, 0xe9, 0x05, 0xed, 0x02, 0xf6, 0xfe, 0x04, 0xfe, 0xee, 0xee, 0xf8, 0xfa, 0xfc, 0xcc, 0xf0, 0x05, 0xed, 0xe8, 0xde, 0x06, 0xda, 0xff, 0xe3, 0x02, 0xe0, 0xfa, 0xff, 0xd9, 0xd3, 0x04, 0xf8, 0xdb, 0x03, 0xd3, 0x01, 0x01, 0xd8, 0xef, 0x02, 0x09, 0xe1, 0xf5, 0x02, 0x04, 0x02, 0x07, 0xf1, 0xfa, 0x05, 0xfd, 0xda, 0xfd, 0x02, 0x00, 0xfe, 0x04, 0x01, 0x03, 0x01, 0xf0, 0x09, 0x05, 0x04, 0x02, 0xf8, 0xf6, 0x02, 0x05, 0xf3, 0xf8, 0x05, 0xf3, 0xf3, 0x01, 0xfe, 0xfa, 0xdf, 0xff, 0xff, 0x08, 0xff, 0xe7, 0x05, 0xf9, 0xf8, 0x06, 0x02, 0x07, 0x05, 0x00, 0xf8, 0x00, 0x00, 0x04, 0xdb, 0xdd, 0x03, 0x00, 0xff, 0xed, 0xfb, 0x05, 0xef, 0xee, 0xed, 0x03, 0x01, 0x06, 0x04, 0xfd, 0xd6, 0xf6, 0x06, 0xf1, 0x05, 0x00, 0xe8, 0x07, 0xef, 0x06, 0xfc, 0x05, 0x02, 0x06, 0x08, 0x08, 0x06, 0x03, 0xe1, 0x06, 0x07, 0x04, 0xe6, 0xef, 0x02, 0x06, 0x02, 0xdb, 0x05, 0x02, 0xfb, 0xf0, 0xf8, 0xfd, 0xe8, 0xf6, 0x02, 0xf7, 0x00, 0x05, 0xf4, 0x00, 0x03, 0xf3, 0xfb, 0x05, 0xfd, 0x04, 0xe7, 0xdc, 0x06, 0xae, 0x04, 0x07, 0xf6, 0xe7, 0x01, 0xff, 0x05, 0xe5, 0xfb, 0xe7, 0xe0, 0x01, 0x06, 0x05, 0xf3, 0x04, 0xfa, 0xf7, 0xe6, 0xe8, 0x05, 0xfe, 0xe5, 0x01, 0xf8, 0x03, 0xea, 0xf5, 0xf4, 0x01, 0x06, 0xe9, 0xf6, 0x00, 0x05, 0xfb, 0xff, 0xdb, 0x07, 0x06, 0xe7, 0x06, 0xeb, 0x01, 0xdc, 0xf3, 0xf7, 0x07, 0xf3, 0x04, 0xfd, 0xd5, 0x05, 0x00, 0xf8, 0xe1, 0xdb, 0x02, 0x05, 0x03, 0x04, 0x05, 0xe7, 0x07, 0x05, 0xf8, 0x05, 0xf7, 0xed, 0xc6, 0x04, 0x05, 0x04, 0xfd, 0xf8, 0x9d, 0x04, 0xae, 0x06, 0xc5, 0x06, 0xdd, 0xf1, 0xed, 0xd6, 0xee, 0xfb, 0xd4, 0xe3, 0xfd, 0xec, 0xe7, 0xe0, 0xdf, 0xec, 0x05, 0xb8, 0xba, 0xfd, 0x07, 0xa2, 0x08, 0xef, 0xf5, 0xf7, 0x01, 0x09, 0x81, 0x07, 0xfd, 0x04, 0x08, 0xc6, 0xc3, 0xcf, 0xf0, 0xd9, 0xbe, 0x07, 0x08, 0x05, 0xec, 0x05, 0x05, 0x01, 0x01, 0xe8, 0xc9, 0xd9, 0xfc, 0xe4, 0xb4, 0xf3, 0x02, 0xea, 0xe8, 0xf1, 0xfc, 0xf8, 0x01, 0x04, 0x03, 0xde, 0xff, 0xec, 0x04, 0x05, 0xdf, 0x01, 0xe3, 0x02, 0xdd, 0x03, 0xd4, 0xef, 0xeb, 0xf3, 0xe0, 0x07, 0xed, 0x03, 0x02, 0xd8, 0xd7, 0xf5, 0x06, 0xe6, 0x01, 0x04, 0xfc, 0x02, 0x02, 0xfd, 0xf7, 0x01, 0xfa, 0xff, 0x00, 0x01, 0x06, 0x03, 0x02, 0x04, 0xf7, 0x04, 0x02, 0xfe, 0xcf, 0xfb, 0x05, 0xfc, 0x00, 0xcd, 0xdf, 0xe0, 0x04, 0xee, 0xdf, 0xe0, 0x06, 0xfd, 0xdd, 0xc7, 0xf4, 0x05, 0xfa, 0xe2, 0x03, 0xf4, 0x03, 0x05, 0x04, 0x03, 0xe7, 0xe4, 0xce, 0x04, 0xdc, 0x06, 0xdb, 0xe7, 0xce, 0x05, 0xe1, 0xd8, 0xfd, 0xdf, 0xf9, 0xdb, 0x06, 0xc6, 0x08, 0xe1, 0xfa, 0x03, 0xf8, 0xf5, 0x09, 0xe5, 0xfb, 0xf6, 0xfa, 0xfc, 0x07, 0xcf, 0xfa, 0xd8, 0xdc, 0x03, 0x00, 0xf4, 0xdd, 0x05, 0x05, 0x03, 0x00, 0xc3, 0xd4, 0xc1, 0x05, 0x09, 0x0a, 0xef, 0x04, 0xe5, 0x04, 0xde, 0x02, 0x02, 0xf7, 0xf8, 0x07, 0xf4, 0x06, 0x05, 0x01, 0x0a, 0xd3, 0xf1, 0xd5, 0x06, 0xc8, 0x01, 0xfb, 0x00, 0xe2, 0x0d, 0x03, 0x08, 0xfe, 0xdd, 0xdf, 0xf9, 0x08, 0xd7, 0x06, 0x07, 0xfa, 0xed, 0xf9, 0xe9, 0x06, 0xf9, 0xcc, 0x07, 0x08, 0xf7, 0x09, 0x07, 0xfc, 0xe6, 0xda, 0xff, 0xeb, 0xe4, 0xd8, 0x00, 0x04, 0x00, 0xfa, 0xe8, 0x00, 0xd1, 0x08, 0xe3, 0xda, 0xea, 0x06, 0xe8, 0x03, 0x06, 0xc9, 0x03, 0x01, 0xf5, 0xe7, 0x06, 0xff, 0x03, 0x06, 0xfc, 0xd0, 0x0a, 0xbe, 0xf7, 0xf3, 0x07, 0x01, 0xf2, 0xdf, 0x09, 0xfa, 0x05, 0xd4, 0xfa, 0x06, 0xd6, 0x07, 0x04, 0x03, 0x06, 0x05, 0xfd, 0xdb, 0x00, 0x08, 0x08, 0xf7, 0x01, 0xcd, 0xf5, 0x01, 0xe9, 0xd5, 0x03, 0x07, 0xfd, 0x05, 0x01, 0xe5, 0x03, 0x03, 0x07, 0xef, 0xff, 0xff, 0xfc, 0xfd, 0xeb, 0x01, 0xfd, 0x08, 0xe8, 0xd8, 0xf8, 0xf5, 0x02, 0x00, 0xe6, 0xf9, 0x06, 0xfa, 0x03, 0x05, 0xf8, 0xd8, 0x04, 0xd5, 0xf6, 0xfd, 0x03, 0xd7, 0xe9, 0xde, 0x08, 0xf2, 0xd0, 0xe9, 0xff, 0x06, 0xf4, 0x04, 0xe8, 0x05, 0xe7, 0xf7, 0xfa, 0xe8, 0x02, 0x08, 0x06, 0xee, 0xe2, 0xf3, 0xde, 0x02, 0x03, 0xec, 0xee, 0x05, 0x03, 0xe8, 0xea, 0xcf, 0x07, 0x02, 0xfe, 0xfd, 0xed, 0xe8, 0xfe, 0x01, 0x02, 0xec, 0x06, 0x02, 0x06, 0xfa, 0x06, 0x01, 0xe4, 0xff, 0xe7, 0xe3, 0x06, 0x03, 0xfb, 0xf7, 0xee, 0x03, 0x01, 0xfc, 0x01, 0xff, 0xfb, 0xfe, 0xf3, 0xfe, 0xef, 0xff, 0x04, 0xfb, 0x03, 0x01, 0xee, 0xd2, 0x04, 0x03, 0x00, 0xf3, 0x0a, 0x05, 0xfd, 0xed, 0x01, 0x03, 0x07, 0xe8, 0x05, 0xe9, 0xe7, 0xf6, 0x03, 0x04, 0xed, 0x06, 0x02, 0xd9, 0x07, 0xe7, 0x07, 0xd7, 0xfd, 0x02, 0xf8, 0xfb, };
const int32_t bias5[36] = {1004, 3895, -291, -446, 136, -419, -536, 1974, -924, 509, -425, -2779, 591, -655, -1696, -28, -3057, -1719, 2615, -209, -2672, 614, -539, -221, 986, 347, -2561, -2023, -373, 1320, 192, 520, -1999, -2074, 384, -1662, };
const int32_t shift5[36] = {-8, -8, -8, -8, -8, -8, -8, -8, -8, -8, -8, -8, -8, -8, -8, -8, -8, -8, -8, -8, -8, -8, -8, -8, -8, -8, -8, -8, -8, -8, -8, -8, -8, -8, -8, -8, };
const int32_t multiplier5[36] = {1446890651, 1446890651, 1446890651, 1446890651, 1446890651, 1446890651, 1446890651, 1446890651, 1446890651, 1446890651, 1446890651, 1446890651, 1446890651, 1446890651, 1446890651, 1446890651, 1446890651, 1446890651, 1446890651, 1446890651, 1446890651, 1446890651, 1446890651, 1446890651, 1446890651, 1446890651, 1446890651, 1446890651, 1446890651, 1446890651, 1446890651, 1446890651, 1446890651, 1446890651, 1446890651, 1446890651, };
